[PAD]
[UNK]
[CLS]
[SEP]
[MASK]
0
1
2
3
4
5
6
7
8
9
a
b
c
d
e
f
g
h
i
j
k
l
m
n
o
p
q
r
s
t
u
v
w
x
y
z
##l
##a
##m
##s
##x
##p
##n
##d
##c
##i
##k
##g
##o
##u
##h
##y
##z
##r
##t
##e
##v
##w
##f
##2
##b
##3
##7
##q
##j
##8
##0
##1
##6
##4
##9
##5
th
##it
##in
##es
##ou
##ch
##er
##itch
bitch
##at
the
##ll
##ing
##an
##on
you
to
##ck
##as
##en
ho
##et
##ed
##or
##us
##ig
##ot
an
##is
##ke
wh
##ea
be
sh
##ut
##ay
that
##oo
##ow
in
li
##re
and
##om
on
my
##ve
##ar
##le
me
nig
of
fu
st
is
bitches
it
nigg
like
##ir
as
##al
tr
fuck
##id
##ad
im
lo
##am
hoes
for
##uss
##all
##ont
wit
##ic
##ver
puss
this
pussy
ha
##ld
##ee
with
##ust
hoe
##ant
ch
get
##ly
so
##ht
##ag
ne
dont
##ill
##os
ass
##ome
your
##out
got
up
do
all
her
nigga
but
##im
##ell
no
##nt
if
##op
just
they
br
##ese
##ash
##one
##int
not
at
go
shit
when
##ack
was
these
##ter
##ight
out
fr
##ur
##ick
she
some
##ers
##ent
##ie
##ce
trash
he
aint
are
##pp
##ct
##ake
kn
rea
lol
##na
##ook
ab
##ould
##ate
##her
we
##ion
have
##um
##se
##ear
##ess
pr
its
what
ever
tw
##un
##ds
cr
know
about
can
re
##ma
##est
##alk
##ol
man
##ink
al
##st
su
fag
##ame
look
##ere
##irl
dr
##dy
or
##ood
niggas
##ore
girl
who
##and
##ies
##ard
want
##il
##pe
them
se
bl
pl
##nd
say
how
##own
love
wor
one
every
bo
##ast
talk
##ite
##use
cant
de
##ab
yall
sa
##ha
call
fa
bad
yo
cl
cu
fucking
##ause
##ip
##hing
thats
sm
now
##end
bir
too
off
##ak
##ong
##ain
##fe
##got
think
why
youre
see
from
##ist
need
sp
good
##lly
##ide
##to
then
##ive
than
##ays
his
##ob
##itt
faggot
##ime
##ud
sl
ya
lma
##ap
back
##ind
try
##day
real
##oug
make
##ta
pe
##eet
let
##ug
##ri
##atch
would
ret
da
any
##ven
still
##bo
##ead
##ass
hate
##ock
##up
gu
le
only
will
never
com
ex
##ound
time
##ry
bet
ar
gr
gon
##fu
##ue
am
play
by
##umb
peop
mad
did
really
sc
##oll
people
eat
##ally
fl
##em
white
##ff
##ting
##ose
over
right
##ge
tell
##lie
sw
##ine
nic
even
##ving
##ra
being
bird
un
bec
##ost
##ool
said
##eak
lmao
dam
##eel
act
##anna
dick
retard
us
##ish
down
##ans
had
more
##uh
here
##ation
bu
bout
id
##ys
##oooo
stop
af
char
their
day
##ous
new
##body
##oke
dat
been
wanna
di
##xt
ill
##ah
##ny
##eep
big
co
##ac
damn
##lf
##iss
feel
yan
##ittle
mo
because
little
there
come
##ways
yea
niggah
tea
##oney
##other
##th
him
gotta
ug
##ks
ag
red
##itter
em
has
##ub
thr
##het
cunt
yanke
cause
life
put
take
dumb
yell
gonna
##orn
con
te
##ppy
nicc
che
should
##cc
##ice
could
##me
always
mu
dis
money
tweet
##ough
##aw
girls
charlie
better
ot
som
##zy
##are
going
lil
boy
ghet
cut
##kin
fri
ur
wom
somet
ghetto
##pl
ph
##ty
give
##ile
twitter
other
##ep
thing
##ase
retarded
yellow
qu
##ity
where
##urn
fat
##ang
##reat
##upid
keep
hit
fuckin
ugly
kill
##irst
does
car
mak
watch
stupid
##ne
tho
talking
fun
work
into
way
haha
col
##iz
##ber
##age
##00
##ih
sta
nigger
cou
getting
##ves
fe
black
pic
##aa
yankees
##ia
##ul
bab
hell
##ree
mon
old
##ci
mom
year
##key
##ipp
##ying
same
yeah
much
wr
##fa
##ollow
aw
show
birds
oh
##ich
##eal
##ure
##ft
sch
##sh
ask
game
well
##uck
##ro
##ude
brown
turn
##der
##ored
hou
pay
best
hes
wa
##les
today
##igh
suck
after
##thing
##el
prob
sex
face
last
##self
##ends
##ought
##oth
##ms
##oh
##fore
cuz
head
side
##ian
made
didnt
were
those
around
ad
mean
la
wi
##rea
before
sho
again
shut
##get
##od
en
ok
cra
gone
smh
##ful
kid
po
night
att
someone
lm
str
happy
something
bro
ra
##qu
home
beat
school
first
called
god
##gg
most
wear
many
tryna
next
bas
follow
wee
ton
##yal
##fri
another
fucked
colored
shes
lmfa
fin
##br
monkey
pa
##wn
##pect
nicca
high
##eri
##ons
baby
mar
##oss
crazy
##xx
hair
##oc
fight
find
ty
##hh
##ens
hard
##less
##ger
two
may
rem
ma
crack
res
walk
run
wont
##be
name
sn
##ats
dem
such
gay
yes
##unk
wait
gi
##ater
stay
pu
ima
nothing
women
lea
sing
##tf
having
pro
looking
long
tak
told
bruh
hear
lot
##ump
pret
house
##yy
##ating
friends
nah
##ble
##ated
while
chick
broke
el
free
min
##ment
##gn
loyal
doing
miss
sle
##ss
##pr
##ings
##ason
##ions
##unch
##friend
ive
op
##ey
trust
seen
pop
wish
care
ple
hot
##ets
pre
song
##uu
thought
##ather
##ary
##ama
swear
text
##ye
##ence
throw
des
app
use
tonight
gl
our
win
##ach
done
par
trying
guys
dude
mus
##ire
inst
phone
jo
und
##kes
everybody
wrong
week
fam
sor
stra
fo
##pt
##ple
##ied
##ond
world
hea
que
##ank
##ican
cute
doesnt
ore
hope
##per
alrea
funny
please
already
might
om
sin
##li
##ng
##ath
##outh
break
pull
pretty
20
lad
per
wtf
##ning
##ved
##ange
##ord
bring
supp
niccas
basic
sleep
rel
makes
sorry
ba
cool
##ps
##unt
cont
hand
##ames
##imes
guy
##ave
##als
##erson
##ips
straight
##ga
##ance
class
buy
ball
##gr
##bs
##our
##eres
##ooo
dad
days
ro
nobody
sure
faggots
##neck
ear
sum
##man
##vor
redneck
making
kids
dy
own
##if
##ually
##oun
live
##adi
##haha
##udes
##ild
##ew
saying
10
fake
job
light
mock
looks
wife
tf
went
##ph
##ily
though
tom
##ott
lets
remem
son
won
dog
hey
guess
jih
##tin
##ww
young
##ise
##ards
stand
gets
anything
amer
person
##side
chill
whats
since
ca
great
morn
##lo
##ace
##ball
##bag
##its
theyre
##ung
bus
pussies
count
hon
sk
##oom
stfu
##ade
self
woman
proble
point
bar
bih
list
must
pass
##my
##kk
nigguh
drop
away
remember
hal
main
ob
rac
##rr
##ign
##ute
eating
friend
jus
mess
##ither
inter
full
team
pict
bc
both
pick
ta
##cr
theres
##ote
fact
thanks
morning
catch
die
fem
skin
##no
top
##eam
says
##ably
leg
cur
mi
men
##een
##able
playing
##king
##att
##ales
left
teabag
##cial
end
seri
kind
##ors
everything
favor
single
##vin
##oud
##ands
belie
wasnt
everyone
def
##ught
##fuck
nice
probably
lmfao
mouth
chr
whole
boot
type
half
serious
##so
##ib
##vie
##ory
##ical
weed
brownies
laug
leave
acc
cle
low
sit
unt
rep
calling
compl
dead
ion
##hin
star
niggers
word
took
##ffer
##ize
music
gre
mind
##ail
##ier
isnt
happ
bull
years
pol
##lt
##by
hom
##amp
drink
##ubl
things
porn
wet
yet
##ped
club
comm
##row
##fect
tweets
females
ey
##ired
cry
open
queer
bihday
sell
##dd
##ents
maybe
until
either
food
mat
once
##ica
##ention
hel
dress
used
omg
believe
ap
came
line
mother
vide
##nn
##esh
##ush
needs
wouldnt
bae
wonder
ah
hu
sound
war
##zz
child
##erst
wants
wanted
differ
listen
##mm
without
outta
boys
watching
boo
set
##weet
myself
lost
##asty
smell
thank
tex
shoot
okay
100
lit
send
wow
##let
##skin
##rew
##here
saw
actually
check
else
dyke
cook
vo
##iv
##vel
##ird
rec
ref
fla
kick
numb
sick
##ho
##ever
##ones
somebody
slop
couldnt
respect
den
kar
nasty
via
##cle
##gers
##14
hold
smoke
slut
racist
video
eas
gen
hat
naw
post
rich
treat
##bt
##bitch
##ouch
##ery
##ows
##illy
drunk
plan
##ried
idk
relation
booty
bea
gave
mil
squ
thot
tried
block
cold
relationsh
bag
water
##cl
##ced
##ith
change
read
ready
reason
fags
coming
diy
bed
cop
mont
rock
##rs
##tt
##eter
shot
true
##male
place
through
female
fall
rather
sur
##act
##vi
thirst
##ins
goes
also
body
talkin
speak
arg
acting
move
pregn
underst
ent
ratch
##og
##jo
##ina
##ark
gettin
front
##ction
conf
wearing
crackers
favorite
eyes
gun
sad
##mer
fucc
##vers
##agr
sec
problem
pregnant
fans
none
ter
tired
##ces
##ii
##go
##back
##orrow
imma
lookin
girlfriend
##ugs
exc
couple
##gether
jihadi
hang
spe
##med
##ner
##co
##anny
lie
##eeee
comes
grand
add
heard
early
##ublic
ratchet
cat
mid
nut
pat
rap
sal
tast
##ling
##eg
##erve
##ana
hood
bean
##uth
##osed
flappy
fly
kiss
mf
met
pur
##app
##ino
together
##lex
meet
stre
yourself
reg
smo
teach
yankee
cheat
##ult
enough
finna
taking
lady
ele
far
fol
found
hill
na
##ping
##way
##20
##ense
ind
##cept
##itting
lmaoooo
sweet
oreo
fine
ign
med
piss
ppl
rid
##va
##vent
##fl
##ount
##atur
hor
##ork
anno
state
neg
outside
##essed
alm
least
boyfriend
cracker
number
##agram
fire
joh
lame
luck
nd
rest
weak
##ls
##mas
##where
##ants
super
thinking
suppo
cock
es
games
##gin
##wh
##ics
##ures
sometimes
quick
sexy
instagram
liter
relationship
month
cal
cap
date
har
law
roll
room
yu
##more
##uff
##ym
##iness
whos
comp
redskin
pics
beaut
literally
bi
fing
fan
mine
sou
sis
##ked
##ual
##esus
los
forget
##ict
niggaz
season
##iph
anyone
scar
few
giving
under
oreos
perfect
##ounds
understand
hall
##ix
##he
##ised
means
lose
doll
##ters
coon
hahaha
##ocr
tomorrow
clean
different
almost
city
hung
mur
pos
sna
times
##led
##sw
##iful
##for
##erg
youll
dec
grow
##shit
family
help
thirsty
24
eye
fil
ju
ni
pot
##line
##aim
mans
slap
unf
quit
##roid
voice
john
bor
ce
dudes
ed
hands
ir
jig
late
mc
till
##cot
##you
##ect
##ently
kno
pres
ago
killed
hella
attention
obama
picture
redskins
cor
dou
pow
past
ride
rob
woh
##ef
##ited
tripp
##ident
crying
drive
blow
ext
arent
bye
unless
phot
against
instead
laugh
annoying
12
ben
bunch
coll
jack
jump
lear
mass
sim
wig
##ness
##ial
shy
lick
likes
ones
truth
##oneip
ate
fresh
uncle
feelings
staed
attit
weekend
deep
fell
hug
less
lying
ser
sun
##gest
which
##oof
tranny
weird
knows
words
##xxxx
business
30
deal
ig
ice
mich
nudes
touch
##ned
##ka
##ton
ins
##omb
stick
##iday
##adse
sole
sub
##android
claim
spr
daw
exp
telling
##aaaa
asked
glad
pornandroid
##iphoneip
##adsexxxx
pornandroidiphoneip
pornandroidiphoneipadsexxxx
cow
er
pie
public
wake
answ
whate
steal
asian
soon
social
nothin
cream
alone
blue
smack
slow
movie
cons
cheese
lmfaoooo
america
honest
skinny
happen
beautiful
15
bud
hy
hum
later
ment
pen
pet
rick
round
vi
wash
##net
##ky
##vil
beh
shi
##oos
ste
twat
everyday
##ists
lmaoo
running
foot
teabagger
teabaggers
complain
matter
negro
whatever
mill
tl
very
##ious
##used
##oose
##ams
##amed
bra
gold
worried
anymore
using
cunts
contr
pictures
hillb
bott
jesus
rand
##dle
##zzy
##ress
thick
ang
isis
knock
knew
prom
save
screa
swag
working
##ipped
brownie
kinda
christ
taste
street
boss
kim
mor
ol
sign
tcot
wind
##lves
shout
int
##ars
story
##adis
door
close
retards
##ract
prolly
chicken
bullshit
dawg
ac
bit
huh
sy
sent
wack
##ism
##oween
mex
wel
proud
dri
clear
cloth
##ular
momma
green
hungry
unfollow
behind
bal
bur
dark
je
pap
##ler
##ible
##ket
##we
hop
stri
imp
havent
freak
abo
alb
order
blunt
realize
expect
thru
strong
walking
ladies
daddy
country
slope
soul
clothes
11
aye
bill
dur
fool
mama
titt
##ues
##ween
##bb
##ator
##ete
beer
##reed
##ality
trick
train
butt
##olog
dey
fair
badd
thinks
level
quest
rapp
followers
waiting
jihadis
media
answer
bust
bear
don
hun
hating
lu
sand
val
##not
##cy
##iest
##off
##za
##res
##vis
##ines
youve
whore
##eain
##ley
step
##ider
goin
##acks
twer
crow
dream
box
cuff
lmaooo
between
scr
biggest
wild
##press
park
mix
halloween
dm
dan
eb
fast
ge
gang
pan
sounds
##ze
tha
mem
loves
neck
brother
friday
##selves
##ola
worst
##aked
retweet
flo
race
chicks
texting
lucky
finger
photo
attitude
1st
bomb
each
jail
jeter
lat
nick
pim
ran
tal
tight
vir
ze
##ming
##son
##come
##ik
##io
##ging
##book
##ject
thug
hos
stuck
##ically
abs
crist
sayin
small
##ended
seem
seeing
##ations
niggahs
tweeting
hahahaha
taken
2014
american
chris
seriously
easy
second
middle
snap
50
base
lay
punch
test
wea
##ax
##cer
##yr
##ition
##iny
##ony
tot
town
hoos
bey
beef
liber
stud
yours
dope
prop
##peci
calls
grou
playin
become
##ational
disg
asking
sucking
problems
defin
karma
folk
ignor
scared
learn
baddest
ke
ru
tv
tur
wat
##te
##bing
##ates
##orge
bel
fuzzy
stuff
trap
fucks
forever
themselves
death
anyway
swe
news
##ized
poor
joe
##like
##gaf
balls
summer
##phone
account
gener
control
hillbilly
random
avi
bow
gar
hi
jud
pig
tre
vote
##pa
##do
##ged
##ok
##of
##bl
##ato
##eth
##oop
living
##rect
forgot
sheen
twink
##ilt
worry
tryn
played
buck
##ipple
shoes
enjo
##ocol
##uuuu
cele
power
##respect
ban
band
cous
corn
egg
fw
loud
mag
nor
naked
vs
wc
##land
##aft
##mit
##time
##fr
##ba
##but
##bra
##10
shar
inv
lock
doe
##urs
##ield
dry
drake
##boy
scary
died
cour
turned
##friends
hairy
caught
laughing
surpr
special
capt
boring
trippin
colle
piece
group
alex
dere
ml
mer
ny
sam
sma
soooo
uh
##py
##pin
##now
##cing
##iers
##ient
##vo
##vice
##ites
##ane
anim
fuk
##ides
chang
chocol
bros
weather
delet
smile
offic
expl
grade
actin
cheating
disrespect
stress
finally
resp
democr
takes
homie
##hole
sister
million
college
chocolate
19
aut
book
bak
cir
cam
din
fck
fut
feet
hick
hide
joke
king
mot
mut
nips
pink
poss
rip
teet
tatt
vis
yass
##lim
##mon
##ding
##ians
##girl
##oj
##zing
##right
##wood
##ities
##ative
##ots
ant
lips
trip
chug
##ages
nope
mane
looked
##ending
##obe
lebr
whitey
idgaf
feeling
ugh
thro
feed
##ensive
maj
##yyyy
deserve
handle
double
celebr
teeth
18
cre
cash
cum
camp
iphone
jap
jew
mr
net
pill
punk
push
rain
##cess
##iet
##ten
##vant
##omf
##aded
doin
brain
drugs
draft
blood
cuh
comment
shouldnt
##ealous
sucks
facebook
weeks
prof
supposed
basically
polit
texas
excuse
months
murder
president
honestly
during
course
13
bang
card
gas
jealous
ling
mas
near
nose
opp
pea
pant
peri
ri
vers
wall
woke
##night
##days
##ike
##tr
##ward
##bur
##que
##ero
lif
##reen
stank
##vern
cho
##osh
crib
##oles
bob
##itely
dare
except
coons
const
cares
sneak
yester
parents
##view
motherfuck
cops
argue
confused
smoking
mexican
welcome
ebola
absol
##pecially
derek
future
lebron
air
bought
ct
cus
cong
dese
gym
kan
lone
lead
natur
rn
rub
south
wiz
##del
##gan
##uce
##ts
threw
##onds
##ased
holy
inside
iss
blame
blah
fail
faith
slit
##ugg
grab
flat
flip
cover
##aaa
babe
##ipping
minute
songs
throwing
muslim
especially
extra
massage
human
football
angry
paper
throat
major
lonely
ape
acr
bt
bf
bitter
burn
duck
dance
foh
gop
jay
match
ps
poll
rose
sen
sense
til
tong
##da
##de
##ij
##ges
three
##ench
##ora
sha
##utes
lives
##arently
nigs
ash
asshole
brought
shitty
wass
seat
smash
spell
thang
slapp
exact
idc
color
moms
attract
paid
##adium
internet
facts
legs
complete
apes
childish
teacher
huge
definitely
peace
yesterday
absolute
21
40
ay
ama
bum
bun
creat
ep
fash
jk
lunch
oomf
ring
sil
tu
##lin
##com
##ror
##fo
##bh
##esome
loc
##antly
champ
sox
soft
allow
herself
govern
##ume
knowing
##inks
drea
bless
worse
clam
spos
daught
gucc
grown
bigger
model
##the
emot
moment
broad
typ
rednecks
dropped
curr
selling
warm
refer
blocked
ctfu
99
bare
bump
dnt
fill
field
gtf
hunt
jam
lam
lord
nfl
tim
tits
van
##af
##min
##real
##vy
##iting
##ene
ann
##aying
##arr
##levant
stadium
tra
##ida
##ady
fore
##eez
chan
sold
soles
##ope
brand
heat
##ional
##ston
drag
clown
##akes
spa
spend
##ittin
anyways
player
flor
##oooooooo
emoj
##ney
##ode
eng
finish
##hhh
minutes
apple
apparently
glass
suppose
wifey
happens
police
entire
clearly
stripp
titties
enjoy
dinner
across
wassup
gucci
25
200
aka
bone
breat
dump
equ
fit
heal
hitting
lar
names
pin
pack
pock
rice
tan
tbh
wint
##con
##ior
##oy
##head
##rick
##wa
##bage
##18
##11
threat
##cha
##ches
##ature
##etch
shaw
stalk
tru
##icans
##eee
chin
chase
chunk
neva
##imate
##elle
drug
dep
spo
spic
scott
screen
dats
cond
teen
hits
monday
write
hours
##others
married
opin
heads
dykes
##otect
planet
enteain
regular
eyebr
potato
driving
fairy
ignorant
trynna
baker
period
tongue
exactly
17
ble
cost
dar
dying
dms
et
east
eah
fig
fish
james
mt
mile
nip
russ
rude
tit
ten
tall
tough
veg
wen
west
##lol
##ael
##sa
##pay
##pose
##dr
##dam
##dies
##cut
##car
##ole
##yan
##ren
##rican
##22
##62
tow
ange
shake
trans
##ops
##pped
weight
cripple
alot
alright
secr
offended
offensive
##itty
slide
##rible
playoff
idi
idea
somethin
staing
wif
singing
famous
dogs
interest
drinking
cookies
##btweet
grandma
nuts
folks
##aturday
hyp
question
virgin
hoosiers
liberal
garbage
mlb
animal
explain
kanye
60
born
cats
dig
ev
fear
ferg
hus
key
ms
mention
nom
piz
sat
sitting
tick
tem
ve
wed
yung
##ale
##ster
##don
##iff
##ience
##ken
##yle
##rest
##ted
##erry
##asing
hol
lies
stu
stat
##ids
##ades
impress
sol
sock
neigh
##oph
bread
##ints
cred
subtweet
draw
everywhere
devil
spook
##aph
##box
coach
##ubb
putting
dumbass
quote
cars
attack
rape
basket
walked
##ssss
deser
winning
jokes
road
mocks
##www
morningjo
lowkey
repo
sett
beaner
pissed
losing
simple
window
accept
bald
baseball
japan
panties
chunky
eyebrows
etc
neighb
morningjoe
14
300
age
bs
cake
dom
fre
fle
fix
hur
jim
kobe
land
mall
math
named
ole
pants
ray
rated
saturday
tag
um
vag
vie
##set
##ife
##gs
##hood
##vill
##itive
##ann
##any
##eds
whipped
##oods
inc
choke
chuck
chance
brag
gov
french
##ury
somewhere
##ief
protect
known
candy
sup
worm
sav
safe
callin
thinkin
sla
makeup
letting
anybody
switch
build
coff
yanks
himself
cheated
fried
babies
fighting
remind
snitch
snow
longer
queen
contact
record
ignore
riding
dollars
filth
michael
christmas
albino
talm
beyon
faithful
attractive
florida
hypocr
pizza
basketball
view
90
aver
aust
bat
bday
bank
det
gab
ht
hips
jen
jord
mis
nun
os
rom
rih
sir
sons
tar
tip
tac
tree
vict
##air
##nig
##uz
##uation
##vies
##wor
##work
##fast
##bers
##ining
##cho
##era
##erv
##ered
##oner
##each
shop
inj
incl
##reci
fuc
stom
store
##iding
##ada
log
##amas
cross
alive
##anda
blind
##astic
deb
##aking
yah
##tape
##boys
lem
exist
grind
players
score
flow
uni
movies
muzz
turning
hour
following
paul
missed
fox
breaking
breakfast
201
royal
chillin
messy
difference
sloppy
milk
speaking
term
excited
purpose
juice
freshman
consider
happened
floor
zebra
weave
disgust
cousin
wcw
winter
opinion
coffee
718
dear
diss
eag
flex
iont
mic
nerve
pal
pac
raw
sooo
silly
tear
tour
witch
wal
wop
york
zero
##aj
##uing
##yd
##room
tht
##ouse
##chat
hook
##ison
bein
shell
##ution
ina
inse
##relevant
often
asks
track
##allen
##ices
havin
chea
fro
##pping
##earch
prin
press
priv
twice
rele
##andal
##ility
sever
plays
clos
spot
##riage
comin
##ement
tells
usually
built
##ooooo
charge
molly
##ube
shouldve
disc
##ept
killing
watched
turns
headed
admit
##hhhh
giants
mins
appreci
contin
friendly
message
tax
guns
beanies
##2022
irrelevant
wigga
sunday
bottle
##ology
twerk
george
pimp
surprised
delete
creep
bobby
natural
amazing
dreams
daughter
##622022
##donal
average
rihanna
lemme
718622022
7186220221
35
ari
bb
bre
bath
cas
cig
case
dip
dist
duh
gook
jers
kr
loose
mick
mac
nap
nail
pier
wer
yr
yess
##la
##coh
##gy
##gas
##gar
##gue
##uc
##uct
##ron
##fish
##bad
##bel
##ined
##atic
youd
##ett
##uson
##ishing
inn
inch
meant
stage
##irit
##ico
##very
##eek
choos
##imin
noh
pray
##und
##stem
talks
talked
del
sauce
spl
span
tryin
daily
army
arrest
scally
##raid
##race
afraid
dating
illeg
feels
teams
puts
tweeted
##anger
keeps
carry
wayne
felt
shows
shower
showed
tony
paint
gives
slept
##uuu
##life
##ground
##iforn
taught
mike
accident
republ
children
boobs
hatin
shots
arguing
seconds
##backs
regard
election
californ
border
mcdonal
corny
buddy
bottom
album
total
turnt
belong
circ
congr
epis
allowed
typical
shawty
vegas
secret
idiot
##ville
austin
republican
az
aff
bes
bac
boun
cust
dest
foc
hil
kh
ly
les
lou
lab
lak
mir
mist
nation
oth
pit
por
page
pump
radi
san
soo
sar
vot
yard
##mo
##par
##nation
##den
##ives
##gu
##zi
##fh
##fer
##ital
yous
holl
##ories
shame
share
meat
stunt
trou
##idge
##ussy
##icy
##iced
##ication
chip
chain
socc
##ills
assh
upd
brit
brothers
atl
price
tweak
crash
crush
repl
succ
blast
works
saving
smith
office
needa
##oble
##aps
wouldve
grad
gram
##fully
##umble
scandal
flight
flaw
buying
african
moving
agree
convers
shoulda
feather
##ippin
awesome
##ucks
houston
lazy
raised
based
followed
lmfaoo
marry
##yyy
missing
pops
##ache
##onda
bars
##rrrr
commun
squad
reading
terror
##cover
streets
##2014
indian
horny
dollar
mentions
shoutout
sweat
judge
constantly
psy
local
miley
playoffs
ferguson
japanese
soccer
ain
breed
dw
four
ga
gf
gir
hen
hust
hist
hmm
ik
lyr
mos
pom
pee
pain
peep
pure
ron
rag
range
sus
size
search
tend
tbt
ut
vine
ways
woof
##lock
##lish
##sos
##nes
##ca
##cake
##ker
##gi
##hea
##rup
##ek
##wich
##bed
##ering
toe
##asy
##using
##ises
whine
wheres
##uts
lip
##lect
itll
imag
challen
asses
dod
shits
waste
##ured
twist
cans
cand
mann
alcoh
orient
girlfriends
plans
deg
fault
closed
smfh
seems
spirit
##itten
slant
peck
timeline
action
moan
hello
sexual
strugg
lmfaooo
mary
marriage
giant
leaving
progr
pulled
sleeping
lights
lightskin
standing
personality
honk
selfies
points
##attle
##fuckin
dressed
karmas
easily
hates
##vious
hanging
salute
mfs
bio
posting
jigg
doubt
penis
washing
complaining
screaming
system
impo
rappers
mixtape
general
locked
mutha
political
absolutely
foreign
chinese
credit
spanish
california
mcdonalds
trouble
16
2nd
aunt
bored
ceain
dc
evil
fb
fou
fant
fob
hip
igg
iubb
ken
mig
mim
ner
national
ram
ros
ult
yuh
yep
##lon
##mal
##mers
##national
##dont
##col
##cies
##ki
##how
##zil
##ex
##vs
##wife
##bow
##band
##12
thin
thous
thurs
##ito
##ched
##aster
##asure
##edy
anal
beans
shos
##utch
inf
liked
##reme
##leep
stink
stole
##ires
troll
trail
##ided
forreal
##icc
##usty
chink
chasing
solo
neither
goals
lolol
cancer
rev
along
whoever
##ili
##iled
blond
everytime
boi
bodies
##ables
fav
##aka
##llywood
slay
##ria
arm
fli
flag
unc
feelin
teapay
##hetic
conce
father
funn
##izzy
older
showing
paying
beating
final
tyga
walks
leaves
##perate
relax
classy
classic
sky
##kkk
obvious
legend
reply
republic
homies
apa
apolog
cookie
kicked
posted
bags
argum
gunna
##eeeee
address
purple
lately
beng
spread
coward
stealing
viol
steve
brazil
sentence
questions
rapper
sandwich
snapchat
twinkie
twinkies
changed
offici
ashamed
fashion
barely
##damn
settle
vagina
jersey
lakers
success
alcohol
impoant
republicans
911
aha
cd
cott
crew
das
doo
douch
deez
eur
ema
fal
gt
gag
gator
hm
honey
irr
kat
kard
mal
muh
non
owe
pj
rent
sour
tank
wo
ye
##men
##miss
##pic
##nin
##nam
##down
##cent
##ias
##ipe
##ove
##oint
##ux
##ya
##tim
##vb
##bc
##bout
##qq
##99
##inea
##erm
todays
##ores
##ising
whiny
bell
liqu
stas
isl
asleep
fucker
loved
##ami
chat
chur
##htag
necess
upset
doct
butter
justin
bru
bright
goal
outf
fru
##urb
##icks
someones
prot
proof
sudd
orange
##iling
deli
faced
faces
backp
##upac
guinea
betta
flash
tellin
dicks
##aces
moon
##they
##ubby
cuts
quiet
funky
adult
advice
broken
homeless
beats
pair
gift
takin
minaj
career
texts
desc
desperate
wins
heaven
##oured
roast
##wwww
americans
busy
selfie
passed
clevel
staring
listening
boos
sluts
thots
addict
pathetic
salad
beaners
smokin
horrible
247
series
cowboys
knocked
syria
tricks
luv
crowd
nicki
generation
magic
captain
democrats
btw
pollo
slapped
current
emoji
breath
truly
enteaining
blew
angel
beyonc
jordan
includ
stomach
eagles
insec
mickey
regardless
episode
afford
hilar
lesb
others
##oblems
oriental
kardash
sudden
22
27
65
av
bid
coo
cel
eh
est
fed
fist
gim
gum
gard
goof
ham
iu
ike
jer
kept
lee
nba
obs
ova
pound
rally
sea
ted
tupac
wil
wana
zim
zone
##aign
##mh
##mar
##cs
##ull
##han
##red
##ees
##van
##with
##fg
##30
thre
##itary
##atically
##oned
toes
##orm
##uses
anth
belt
shock
##ayl
lim
##rection
##ared
stone
stock
island
lovin
##aming
##eeks
cha
chief
##iment
brook
##tern
##iel
##ession
pressed
crit
als
wanting
blank
plus
spit
goodnight
##aped
##assing
legg
area
grah
##uel
scale
eats
eatin
unif
stopped
charac
diet
##acy
emb
hashtag
yelling
boyfriends
phil
killer
laid
shoy
kidding
nights
raise
wears
##erial
league
project
hearing
housewife
poppin
appear
appro
join
##load
honkey
honky
interview
international
catching
legal
curve
common
cryst
##ival
treated
##bitches
relationships
##ttt
catfish
kissing
teachers
elect
decis
nikk
niqq
correct
hype
vibe
scream
jeans
ordered
valent
twerking
totally
bucket
sharing
caption
disrespectful
respond
autom
camera
tattoo
visit
##girls
lifes
senior
governor
gtfo
dragon
pockets
study
socks
neighbor
hurry
muzzie
walma
cheap
appreciate
cigar
focus
radio
assholes
indiana
lyrics
pecker
mimi
ultimate
trailer
church
insecure
hilarious
kardashian
aud
bound
boom
cit
cin
cen
cell
cent
cyr
dj
err
five
gm
gri
hater
htt
ka
lls
mob
mcc
ped
pus
peter
rare
vol
wid
wide
##look
##list
##mi
##pers
##ku
##rd
##rated
##tube
##wards
##bab
##bye
##ja
##jesus
##16
thes
##iner
##chea
##erie
##anut
youtube
hoo
hole
hollywood
##ether
##ette
ank
whit
whis
wheel
bees
shall
shady
online
##ari
##least
style
##irs
asf
loving
##amps
##anta
chest
##illa
assume
heres
theyll
brady
##ashed
atleast
fries
##enty
knees
##ately
##ateful
twit
cru
cannot
rece
reject
##olved
ali
sugar
drown
##ils
plz
sale
saved
cudd
##ipt
needed
##itted
slick
background
realest
##ugust
##rif
arab
gra
flu
##emade
##rael
unlike
becom
actual
bully
bouta
direct
cod
##kskin
discover
killin
makin
coloured
couch
##ipples
##roit
browns
ador
str8
##gging
##gggg
##erience
given
mini
texted
design
worlds
queers
##graph
jobs
##love
##loyal
bush
selfish
racism
tape
##cred
femin
favorites
defense
starbur
homemade
commer
opening
##ddd
mature
##nnn
shooting
sending
##iiii
salty
tastes
flying
element
##what
calm
laws
comput
sisters
loser
film
johnny
learned
simp
insult
spring
experience
petty
promise
burnt
above
beard
value
latina
disgrace
rule
pigs
corner
nyc
tattoos
anti
master
river
issue
broads
filled
glasses
larry
threaten
darkskin
tickets
status
filthy
talmbout
detroit
hipster
target
##nigga
disgusting
illegal
besides
custom
porch
update
conversation
candid
thursday
blonde
officially
cotton
douche
pjnet
cleveland
boosie
including
goofy
graham
embarr
crystal
cyrus
starburst
23
45
5th
70
80
august
bast
bug
dall
dish
ew
ego
gos
gorge
hittin
ira
ja
js
jan
kitch
lang
mook
mood
matt
nat
oil
pipe
rh
ross
tx
td
tig
tack
tie
tap
table
umm
wine
wings
wise
xbox
yup
##lan
##sp
##pussy
##kn
##gly
##god
##over
##oci
##zon
##rig
##ric
##ries
##eed
##ws
##well
##bird
##just
thou
##inal
##erman
##ingy
tool
##ases
##asons
##eno
whip
##eady
shed
shaped
##oops
infl
lied
##ara
##arm
##leans
steak
##ira
astr
tries
fucken
##add
##adays
hav
haw
##eef
##eech
chic
choose
##lyn
sosa
negr
associ
gots
bron
##ashes
note
goat
outchea
frank
##hern
cray
crime
crap
cance
review
##olen
drama
organ
##ander
defe
##haw
farew
badass
clock
clams
cup
smd
nowadays
spam
slam
##apt
reality
realized
pepp
woulda
davis
##board
lean
express
grass
ground
amos
amber
scare
scene
flock
##empt
swing
acts
uses
ide
ugli
emp
coulda
phones
worked
workout
##000
wrote
##rod
wave
##ighs
sucked
enem
homework
goddamn
##bras
##brown
##break
##ensitive
harder
male
resist
lotta
##problems
popped
glo
##aches
##lix
bringing
root
sumn
obamas
tail
miami
wondering
numbers
holding
haters
plano
plane
miles
terms
nuttin
raped
horse
statement
negative
harry
fingers
##form
##ergy
juicy
nike
benz
jacket
attitudes
service
michelle
conserv
stevie
signed
burger
keys
kevin
normal
wcvb
surprise
majority
government
trait
health
figure
deserved
gabby
logic
debate
royals
continue
creepy
werent
destro
history
##giving
challenge
fantasy
funniest
hmu
irrit
liquor
fruit
descri
addicted
lesbian
wilson
automatically
neighborhood
center
##baby
cuddle
adorable
computer
dallas
iraq
kitchen
farewell
2k
4th
64
6th
bie
bother
borrow
coke
ds
du
dum
dun
ef
gh
gw
gig
gut
goo
gur
goss
hiding
jet
jac
jung
kend
kush
kik
kitty
lin
lake
link
mn
mou
mum
mrs
nipple
ow
oce
pt
pitch
pil
pool
poke
poop
sag
sink
tun
uk
ver
wus
wood
yay
yal
##lers
##mad
##mber
##su
##xy
##pm
##por
##pre
##pie
##ns
##cu
##can
##cos
##iams
##kim
##kward
##gie
##oon
##ule
##uage
##hers
##ring
##roll
##ez
##vid
##fc
##bob
##bble
##13
##iter
##che
bitching
##ators
##anas
##onse
##ckey
##ener
host
hockey
##eda
##igan
##otes
##otic
anch
anac
##eapp
belly
shr
shis
shine
##oody
incred
liking
##reck
fugly
steel
states
steady
stolen
israel
likely
trave
trade
##ado
imm
loss
force
hack
chop
##agon
assum
upon
doors
hero
##ims
brah
shitting
wasp
wasting
fran
frfr
knw
reaction
abt
pros
print
prod
twats
##uns
##under
cris
crows
reven
requ
repr
rebel
mannn
orig
orleans
##iles
boon
dez
fac
spent
slipp
return
dawn
scum
scra
screw
activ
##oooooo
charl
diam
divor
code
##that
concer
cheer
mult
kills
cards
##izing
##ules
wrap
written
sched
##ship
bestfriend
suckin
energy
raven
paic
paies
finding
snacks
demand
lots
pretend
##sss
popping
glizzy
joy
hopefully
omfg
related
##grateful
ears
barb
##kkkk
ended
boots
drinks
wetback
material
smells
1000
easier
military
square
rockin
surv
##versity
purse
nappy
lmaoooooo
##white
##ledge
decided
educ
tripping
blowing
jumped
wigger
shyt
fellas
spray
exposed
slowly
mental
hillbill
promot
unfollowed
hopes
titty
levels
cuffin
cuffing
hoosier
beyond
liberals
response
democrat
books
possible
yasss
campaign
pillow
comments
profess
choice
issues
muslims
shaved
smashed
silver
emotional
currently
announ
brandon
emojis
finished
strippers
stalking
condom
costume
towards
interesting
husband
veget
holiday
solid
deserves
repoed
fleek
building
contacts
miser
tacos
victor
princess
released
discuss
nails
choosin
arrested
congrats
bounce
louis
mistake
british
psych
imagine
washington
iggy
##timore
islam
outfit
protest
##aylor
leggings
character
niqqa
twitpic
simply
gorgeous
language
negros
ugliest
effect
jungle
26
3rd
aid
ahaha
avo
aids
bm
bands
bumble
cos
cord
dea
dre
dee
doug
een
freed
faster
gor
gain
hr
hated
hugs
juss
jose
kay
lines
mack
nag
nbs
nipples
od
ooh
pm
poo
pun
rb
rat
rot
rate
rite
sout
sack
sight
six
sensitive
ti
tips
tiny
vac
vice
wes
wan
wut
wore
waking
yrs
##aur
##pir
##pics
##nie
##cus
##ique
##ko
##oot
##uine
##house
##your
##yton
##zen
##ris
##ray
##ral
##ront
##ration
##ti
##vm
##walk
##ware
##who
##fy
##flix
##bin
##bet
##bro
##bucks
##15
##5sos
ther
third
##itions
bitchin
##llll
youn
##ences
hobb
##etime
##igger
##otle
##isy
whining
beg
begin
info
lived
livin
##rel
##reg
##rees
##omen
ona
##lem
niglet
stain
stoner
ital
nigglet
##irk
##ala
truck
##idi
##onth
chose
chinks
sober
soci
##ago
##aged
neph
gotten
upper
butth
##imp
##elly
nog
brian
noticed
wasted
##uring
trashy
##cts
reach
able
prim
preach
prison
twins
rema
reasons
##esty
alab
whoa
##ilty
##peop
sept
blessed
plot
plastic
plenty
hows
##aboo
cloud
cult
##iple
nowhere
##istic
spark
speech
##obbing
##udi
slaying
peyton
david
anywhere
##assed
guard
guilty
lepre
williams
exam
arms
##umbus
scient
unloyal
ungrateful
buff
dates
dike
coc
moves
throbbing
convin
couldve
##melon
disapp
##play
##plant
qua
##nel
function
colors
stairs
blacks
##cious
wrest
adam
meaning
shutup
attend
strip
strap
homeboy
schools
mostly
haircut
snatch
sniff
staying
puff
nahh
freeze
##pressed
trusted
hotter
thoughts
breaks
pulling
role
##ific
personal
greatest
honor
skills
picked
legit
##fucka
##fuckas
situation
starbucks
grew
bullet
clubs
commit
dressing
##hoe
slopes
beach
falling
understood
##merman
species
##medi
salt
purge
ladykim
elev
lmaooooo
sweetest
annoy
suppoers
esp
##while
cali
beauty
fancy
##formed
johnson
irish
extreme
##aaaaa
consist
baltimore
##weather
freaky
busted
cuffed
scratch
mixed
member
zebras
hahahahahaha
student
students
definition
stuffed
accounts
bowl
vote5sos
invite
sooooo
official
celebrate
celebrity
netflix
pills
murdered
oppoun
version
failed
ayo
fasho
##coming
champion
english
stripper
healess
pineapp
pocket
virginia
wedding
domin
savage
slavery
hypocrite
jenn
oscar
##works
private
severe
bacon
graduation
community
terrorists
dwight
rangel
honkies
foul
thousand
lololol
obviously
bengha
successful
europe
false
necessary
deliver
gimme
obsessed
teddy
threesome
brooklyn
uniform
citiz
theses
rejected
becomes
candidate
influ
astros
gossip
ocean
anchor
anaconda
assuming
revenge
slippery
hillbillies
miserable
southern
nephew
leprecha
ladykimora
43
7th
ahh
azz
b4
bay
bash
bend
bost
bones
bitty
battle
der
dut
due
danger
eff
ess
eva
ewww
fm
fame
gin
gam
gall
gee
gent
gear
gap
gem
hs
hig
hay
hats
ih
ios
jon
jess
jaw
jul
jones
josh
ki
ketch
lb
lap
links
mate
meal
mmm
ned
nug
ou
oct
p2
pon
pers
pist
pud
pounds
rt
ras
rum
sittin
taylor
vet
vod
wn
wy
wol
wreck
yeen
##lar
##los
##aint
##mat
##mate
##mfa
##pan
##pet
##pos
##nies
##nbc
##dad
##cil
##cast
##corn
##capt
##ius
##gle
##gaw
##gang
##oed
##uced
##hat
##ham
##zel
##talk
##tweet
##wagon
##fag
##25
##bu
##bor
##bby
##js
##1d
thugs
thunder
##iti
##inds
##eral
##eries
##eration
bitchy
##ati
##atul
##llie
##andy
##anks
##onna
##ency
hoop
hors
##orrect
##oty
##otch
anx
whoop
bee
beast
shm
shave
shade
shiner
##ooped
infect
lib
##arant
##arian
mee
ster
stab
stands
stacks
itch
##iro
aside
trin
trill
##idents
##ads
##ament
##icle
pussys
##eezy
chir
cheeks
##illed
justice
brun
britt
whenever
fred
##urance
##ookie
webs
##sey
prude
pract
crook
cried
repe
##olution
manag
manning
##sta
##str
##star
##stop
##peanut
places
boat
deck
saudi
clips
clutch
spear
goodbye
##ober
guarant
willing
arod
gross
peoples
##olling
eaten
flop
##ffic
##osex
swim
sweep
##eels
download
bubb
bubble
coast
##acle
hasnt
yelled
conne
convo
tech
dise
cutting
womans
##ples
##ploy
quality
watchin
##izz
##0000
##ulous
awkward
ohh
##ealth
##she
##rog
adm
##ream
##gets
##gged
wearin
tonite
highly
##onsider
marij
##ocorrect
fighters
hardly
remix
maury
walkin
runs
runnin
pretending
mines
loyalty
popular
popcorn
prefer
parent
joey
oml
omm
##lier
##grade
dads
earn
earlier
##ottie
standards
americ
chilling
counts
ski
pointless
barry
passing
dropping
thanksgiving
curved
accord
bulls
homo
eyel
opened
##nnnn
ahead
warning
texans
refuse
##hoes
slutty
genuine
watermelon
copy
falls
fuccing
terrible
patrick
smoked
cocky
compete
company
bike
murph
positive
##force
decent
decide
iron
mcm
robes
blowin
shylock
dealing
michigan
claiming
cheesecake
lmfaooooo
humor
mentally
washed
signs
unfollowing
jeff
##uesday
training
lux
dancing
retweets
pimps
hosp
beefing
proper
ruin
trey
treasure
enjoying
cousins
eggplant
changing
deleted
respons
autocorrect
circle
hicks
motha
possib
##yyyyy
campus
jews
##iety
profile
lingerie
verse
constit
motherfuckers
naturally
matching
slapping
bunny
tule
blessjesus
emotions
chances
equal
title
wifi
msnbc
neighbors
slaves
views
romo
taco
shopping
2013
tears
privile
arizon
breast
pierced
innoc
congratul
lyin
mirror
pumpkin
holla
chipotle
atlanta
tweakin
tweaking
henny
degener
moaning
struggle
progress
fliing
argument
backpage
zimmerman
valentines
griff
ankles
commercial
dishes
chicago
bronx
cancel
enemy
farewellcapt
ghost
kendrick
incredible
repres
alabama
example
cocain
espn
duty
fml
higher
ketchup
vodka
##peanutss
farewellcaptain
499
5sos
67
95
aa
ae
ack
aist
avis
ber
bon
bam
buss
bake
bite
bosh
cc
cy
core
cab
dh
dies
dub
dice
dusty
eve
fi
fest
fab
fought
gal
gays
german
hid
hipp
hire
humble
ian
ily
jr
jake
jason
jets
jerry
kike
kirk
led
lack
loos
mast
mud
mia
munch
mets
mouse
nc
nh
nin
nan
nas
nature
og
ov
oak
occ
pc
pear
pose
pats
pork
ren
rad
ree
rug
rod
ruth
ryan
sore
sang
sym
uber
voc
vamp
wing
wuss
wink
wob
wats
waka
yol
zo
zoo
##light
##lph
##au
##ae
##mans
##mich
##pen
##pol
##core
##cakes
##game
##good
##old
##ued
##uals
##uana
##hes
##hell
##yl
##zer
##zone
##rn
##rist
##round
##tos
##tions
##vp
##wr
##wed
##west
##wise
##fs
##fans
##ban
##big
##boo
##bee
##bys
##300
thottie
##ita
##inals
##esy
##ester
##chu
##chool
##atin
##atives
thee
##inger
##ances
toil
toys
toss
##enn
##ety
##usive
##othing
anon
##isk
##kel
wher
whose
whips
whores
shark
indy
liv
##rell
##omy
meg
melo
melt
fuher
stood
station
##ali
trend
trapp
traded
trann
##adian
loaded
loaf
##amer
form
former
forward
##icide
##icious
##verse
##ldo
##eem
##antic
chu
chas
chap
chips
chubby
##ags
##osc
##osing
##outs
doc
dolph
allerg
brad
bridge
notice
ath
##ackin
##tery
frm
##enti
##iels
trashes
##ppin
weve
welf
pra
##union
crown
cruz
cann
canadian
relie
##mao
##olic
manz
suicide
drove
sean
seats
blows
bloody
plant
lovely
boats
decl
##abet
yalls
saints
click
clap
climate
clothing
cure
##aki
##istan
spin
spine
space
spider
slim
slight
slip
letter
##rib
guid
guala
leo
comfo
exs
exe
exit
exes
grave
among
##umbl
scor
science
flood
flipping
##ems
swerve
unin
became
usa
boutta
dildo
##ahs
cole
##acc
comeback
##thew
agreed
mull
tweetin
ghettos
##playing
phase
philly
otherwise
quite
quotes
fathers
##angers
keeping
caring
##news
hahah
##berry
feature
##face
awful
paybacks
sucker
sideline
adop
meanwhile
wipe
shoe
attempt
string
stretch
stranger
rach
homegirl
beatin
##ggg
market
tyr
mayweather
##bees
snip
stayed
leavin
proven
eli
operation
wishy
prepar
throws
appoint
glory
parking
insta
everybodys
weeknd
queens
percent
##angeles
relig
bait
cooler
ballin
##ified
##hahaha
##phant
remembers
guessed
county
barack
passion
tale
##cru
catches
ending
defending
##fucking
##iban
compliment
stars
eyed
matters
helped
huing
sounding
voor
reco
recent
recently
flav
kicks
deny
karate
genius
treating
milf
squi
montana
enter
confir
confront
##iii
speed
speci
patience
smooth
elephant
farm
hillary
medical
pisses
ridin
resting
restaur
superman
cocks
lawd
lawy
soup
losangeles
dolla
position
growing
mansion
present
powder
wohless
collect
fellow
ight
touchdown
insane
inspir
insurance
expensive
answers
stepping
golden
bottles
christian
moron
morons
intell
drivers
blunts
bills
hundr
steph
twerkin
gangs
floyd
latin
pimpin
talent
taliban
hoser
laying
studio
##pecials
ruined
sweater
sweating
judging
##door
##block
##ethey
banana
eggs
##from
merry
animals
democratic
199
vision
networks
politics
motherfucker
motherfucking
congress
leader
shape
spelling
completely
silence
daughters
models
lamar
traffic
large
spoil
bleed
figured
russell
taller
wifes
##ophy
subtweeting
devils
jimmy
savages
hypocrisy
crossed
university
2015
witcha
frozen
princ
pressure
breh
bathroom
##ettes
splash
belongs
sarc
voting
##heads
program
jiggaboo
migos
roses
##colored
thincc
arguments
cdfu
##mission
##namon
doctor
doctors
avail
garden
shocked
decision
nikki
cinnamon
elementary
hawk
association
empty
traitor
bieber
jacob
mouf
steelers
original
diamond
schedule
ravens
survive
freedom
gorilla
younger
italian
oppounity
severely
benghazi
rejectedpeanutss
influence
leprechaun
essay
pistol
anxiety
website
marijuana
according
eyelashes
arizona
innocent
toilet
welfare
comfoable
rejectedpeanutsspecials
2am
32
33
48
400
510
61
8th
ak
a1
aer
ale
aists
aux
bg
bin
bom
bff
bree
berg
cs
cad
cuss
cass
cens
cath
ding
ded
dor
dow
dunk
dutch
ec
ell
era
fee
fits
fade
fired
faded
feds
fishing
gy
gta
het
hed
hee
heels
io
icy
jj
jock
jama
jane
kha
keef
kelly
ll
leak
mk
mam
mong
map
maa
mens
mount
nt
nj
nite
noooo
naa
nude
nons
nooo
nvm
oz
ooo
oly
pint
pitt
pour
pony
qa
qt
rant
rings
rounds
rams
rims
rules
si
site
sip
sends
sike
tm
tn
tg
tat
tam
tone
tink
txt
tub
tied
tamp
tuesday
una
vit
vin
vets
vines
viny
wis
ward
wah
wth
wage
woods
wealth
yer
##lead
##lines
##lmfa
##lmao
##ai
##av
##mies
##mend
##mind
##sl
##ses
##pow
##pac
##nas
##din
##cin
##cul
##cour
##ived
##iors
##ients
##gh
##gon
##gos
##gles
##gins
##oid
##ods
##ograph
##ua
##uke
##uate
##hal
##hour
##year
##rash
##rate
##read
##rage
##ruct
##tw
##tand
##ein
##vir
##wing
##was
##want
##will
##watch
##fight
##fto
##bat
##bon
##bell
##breed
##ju
##jay
##69
thi
thumb
thts
thighs
##ini
##chi
##erence
##atea
theory
##ingo
toy
toms
tops
todd
toler
##ena
##eng
holes
##orab
##ority
##ota
##oted
##otha
anton
##keep
whites
##eah
beers
shid
shades
##aya
inbox
lic
##oma
myth
niger
ofay
fukin
sty
itself
asht
askin
tri
tray
trent
tread
trif
trending
trigger
##iders
imo
image
immedi
loll
lover
##amn
##amin
##amatic
foreal
##allow
witness
hah
##eeze
chad
china
chapp
soph
##agne
##aganda
alleg
hers
butch
##imum
noise
##opter
theyd
bry
notch
frust
##urge
##ential
held
heated
##ppp
ability
##hero
weet
##ums
##umes
pride
proc
twin
crimin
knoww
knowledge
regr
reward
relevant
##olar
alike
alarm
sue
suit
sugg
dramatic
seg
sees
separ
seattle
blo
pls
plate
howard
however
bold
talkn
dej
dece
dems
depressed
sai
facing
yoga
yokel
clim
clue
cups
smiles
offer
##onge
##ains
spy
spank
spitting
sponge
hispan
##uda
slave
yaa
yaw
yaaa
##apy
##apers
##inder
realtalk
##ribut
dah
anytime
lex
leop
lemon
lefto
exotic
amend
amanda
byt
madd
flick
##ffle
overrated
nicer
unfa
unatt
active
actions
##ished
##ansas
afr
affect
coat
cocon
damned
##issa
##issipp
moet
moor
moder
moved
##ubs
thrown
dislike
urge
urban
carl
columbus
##ization
##berg
staff
##ula
##civil
mommy
awe
aww
awake
award
awww
ohio
##shi
##shot
turnup
payback
waffle
sucka
##els
shoved
shovel
enforce
craz
kidna
lml
coloreds
march
marie
marsh
marcus
tyler
hardcore
##gery
mayne
mach
mail
result
##bey
##belie
snake
snoop
demon
sings
prov
proved
lottery
elite
##gnize
mississipp
wishes
songz
textin
apples
winner
##irement
joint
joints
famu
foe
##pton
##athers
perry
relate
classes
balling
##ify
caer
mustard
mustache
drops
obam
racial
##rrr
messing
picking
##crimin
curse
laughin
accur
grease
greedy
minded
bullets
polo
wetbacks
commie
cryin
crybaby
camel
videos
wonderful
wars
##zzz
smelly
checks
cooked
##ivity
kicking
somebodys
holds
blocking
rocks
surf
surround
frontin
conference
grandmas
grandpa
added
patty
kisses
meth
nae
indust
lmaooooooo
rider
ridic
harv
harlem
rollin
rolled
compar
compared
forgetting
##iphop
perfectly
cleaning
niet
unfoun
handsome
correction
robe
robin
trippen
laughed
lesson
##gestfans
touched
sticks
expose
cowork
eric
smacking
lmfaoooooooo
honesty
150
mentality
washy
introd
##ractive
mexicans
mexico
driver
aboion
butts
donate
dreaming
daniel
daniels
memories
latest
punching
punched
weap
propaganda
ignoring
ignorance
turd
below
randomly
judg
bandwagon
fwm
invest
mlk
stressin
camer
motor
possessed
triple
network
cardinals
lingo
rivers
sneaky
motherfuckin
rns
burning
created
epic
dreads
emotion
types
ctfuu
bumpin
gtfoh
hunting
forehead
breathe
dumpster
threats
spoiled
potatoes
russian
##ricane
transl
alotta
interested
nomin
nomore
satan
satis
tempt
drawing
fixed
hurricane
inconsider
chucker
beyonce
htgaw
jordans
##world
flowers
foxnews
microw
several
closer
closet
bbq
casket
kris
split
carrying
accidentally
turntup
circles
bacc
yardie
psycho
ainn
hustle
susp
##lected
imagin
manners
struggles
honkie
thousands
slayed
apologize
brazilian
emabig
roasted
esteem
jerk
anthem
anthony
critical
approach
studying
cigarette
cigarettes
peckerwood
kaep
pushing
whisper
aliens
discovered
designer
feminist
##addup
defeat
smdh
conservatives
destroy
product
activities
concerned
multiple
education
professor
condoms
vegetables
avoid
##people
culture
scientists
quaer
elevator
boston
october
horses
guarantee
##osexual
disease
##ployed
murphy
hospital
congratulations
degeneratea
represent
cocaine
acknow
hippo
masturb
ncaa
wussup
yolo
chaplin
athlet
praise
manziel
execut
flavored
restaurant
sarcastic
available
downt
khaki
olym
pinto
vinyl
immediately
suggest
coconut
mississippi
##gestfans1d
inconsiderate
htgawm
emabiggestfans1d
degenerateaist
2m
28
29
47
44
54
500
72
98
9th
ax
ace
ads
aap
aqu
apr
auth
ahhh
aicle
bos
bent
bish
bice
biz
bugs
cay
cough
cnn
cmon
cakes
dv
ditch
dust
dink
dime
danny
eld
ery
fer
fizz
gs
gn
gah
guts
gassing
hc
hous
hul
hump
hank
heter
ip
ich
jar
jun
jame
jour
jury
jada
lg
lan
lag
latt
lana
mild
mute
mothers
mvp
nam
nie
nest
nood
nino
nbc
oun
ook
py
pas
pir
pays
pub
pity
rd
rig
roo
row
rome
rough
rank
rise
ripped
rico
rookie
ss
sig
tab
tuck
tats
tik
tumbl
ud
uhh
ven
vick
vile
vel
wu
wv
ww
woo
wishing
xx
xxx
yost
yase
zon
zip
zij
##lets
##lands
##mem
##mys
##mets
##sc
##sen
##some
##sbur
##xck
##pas
##pot
##pha
##nal
##name
##dri
##dead
##dles
##cra
##cons
##cott
##ios
##iber
##iqu
##kers
##know
##gate
##ox
##ody
##oever
##uf
##uary
##hit
##has
##hom
##hos
##hip
##hous
##hel
##hey
##yard
##ycl
##zard
##robe
##ev
##eat
##eys
##eira
##von
##val
##wal
##word
##woods
##fat
##fall
##fil
##bas
##bar
##bang
##bles
##bits
##bonds
##bpol
##je
thor
thong
##itz
##itos
##itical
##chie
##christ
##erving
##atl
##atat
##ingdead
##onment
toppy
tooth
torn
##eness
hoed
hogg
horr
hoping
##edo
##eday
##edict
##orse
##ords
anger
##ister
##isher
##isha
whack
whil
whether
shaking
thatll
ing
inbr
invis
inlove
lime
lift
liars
limit
##rels
andor
andrew
ont
##arch
##level
meek
fund
fully
stere
stinks
stiff
stories
stoned
asap
##ald
##alt
tracks
##idence
##ader
##ading
##ador
load
logo
ford
##alled
##ontin
##icopter
chit
chow
chant
cherry
sob
soda
##agra
##aghet
nem
assa
goth
upload
allen
allah
allstar
niggabitch
button
##ima
nove
iffy
##oppin
bri
brings
bryan
bricks
##inth
atta
golf
shittin
fridge
##urd
##uries
##urity
sheets
somehow
##entions
heas
height
##pps
knight
knicks
react
lolz
abu
webb
##season
prior
whatchu
twee
twatch
crust
crank
crusty
cramps
knowin
rey
revis
##maid
##oli
manly
##inky
alu
alpha
##stick
##amel
dro
drum
orang
##ando
wantin
seven
blk
blink
blax
bleach
pla
plain
boa
talker
dex
depress
##haa
##hale
##happy
##haps
fave
clar
clipp
clues
clingy
cubs
##ipes
nowplaying
##enda
##ender
offend
offense
spoke
spice
spaghet
goodm
thenna
##obama
slid
backs
backwards
##tail
peps
dave
##asss
##assment
guit
gull
lev
leash
leather
nevermind
combo
comedy
betray
armed
arrog
graph
amb
amen
amount
madden
flipped
##employed
##ffff
swore
swallow
unions
uncivil
unemployed
##ostit
damage
dammit
actor
buzz
ident
charles
dayum
diving
direction
illiter
bigot
biggie
cody
coco
##aced
##issy
therefore
##thats
uggs
conv
concl
conced
teens
teix
cheesy
disrup
urself
phat
yellows
quan
qual
keeper
killa
carol
cargos
maker
funeral
fever
feathers
babes
monster
##cience
moma
aware
awards
showin
schem
##shis
waist
afterwards
lastnight
advan
lace
laff
laund
shove
envir
craig
craving
pole
poly
attacks
stressed
streng
homecoming
##ggie
basis
basement
weezy
highest
##erior
mark
##ossible
fights
reminds
max
maar
cracked
reso
walkoff
snack
snob
givin
pupp
proving
elimin
elses
elissa
##ments
mission
ops
options
trusting
careful
pleasure
hotel
prevent
precious
desp
desk
useless
winston
parr
paran
mush
famili
straw
foam
foley
heaed
heavy
oregon
omar
20k
perform
coolest
##unte
contract
handed
handica
##gram
roaches
earl
earned
owner
##ification
##ounge
mocked
##phones
standard
causing
cavs
caoon
mornin
##loe
##loaded
countries
skit
skill
barber
barrel
##kka
nigguhs
mains
object
messin
messages
tae
diego
skinned
legacy
curb
curls
defend
halfbreed
accent
lower
repos
greg
grey
greet
##ierra
happiness
committed
sells
sellin
sellout
helicopter
dresses
##ushes
sounded
warri
10000
checking
cooking
voices
recom
recycl
denna
denial
nawl
squak
##tttt
fallin
surgery
fucced
security
excuses
hangin
midnight
pattern
hoodie
kissed
metal
teaching
indeed
lmaoooooooo
pissing
firefight
superhero
suppoing
##why
capital
rolling
roommate
##ymous
losers
scaring
undercover
##hehe
cleaned
murda
nikes
cease
edit
edges
powers
robbing
photos
photosh
wigs
wiggers
serving
touching
subject
claims
cowboy
erry
lmfaoooooo
lmfaooooooo
humans
pencil
millions
anglo
knocking
screams
screamed
screamin
moral
morals
morgan
windows
intentions
closeup
welp
darkie
strike
stribpol
impossible
ordering
expecting
expected
daddys
soulja
billion
##ological
rapping
busting
hunn
luke
sandals
boxing
script
scrolling
dmv
ebony
pancakes
memph
members
retweeting
eachother
latino
tests
##axon
traphous
trees
##ofth
##black
##blue
bucks
banned
bananas
##brace
dryer
groupie
merica
mermaid
smaer
soooooo
changes
smiley
officer
stressful
bakers
fckn
motiv
mutt
tatted
yassss
antis
create
jewish
brains
drafts
drafted
nearly
nosey
periods
wallah
##track
sneakers
rubbing
fails
grabs
covering
##aaaay
jayz
senate
amaz
creatures
tuna
##foot
location
champions
champagne
broadcast
hunter
timbs
##affe
channel
soldier
clowney
stripping
equality
fitness
tanaka
##wait
depoed
spicy
mtv
westside
towel
secrets
explains
mentioned
nomo
tempor
flee
landed
tags
bragging
govt
90s
banking
gabbys
romney
##airs
injury
injuns
include
grinding
muzzies
considered
flexin
pacer
cheaper
release
continues
taxes
ariana
distance
duhh
##gypt
choosing
delicious
circum
labor
label
voted
##guy
##ference
britney
priceless
replied
replace
gaza
hmmm
poms
peeps
suspect
##rupt
whiney
twisted
degrees
spiritual
miguel
nerds
trolling
apologizing
gaga
biden
celt
fisting
critic
alsina
blanket
decisions
nikko
audience
volunte
cruise
grape
bullying
worldseries
feminism
rivera
customer
customers
embarrassing
bastard
bastards
tiger
franklin
crayons
ideas
ideology
##browns
conservative
destroying
google
gurl
pilot
pokemon
traveling
immature
request
scrappy
charlies
divorced
paicip
paicular
deaf
mackle
##walkingdead
hobbies
society
butthu
septic
pineapples
european
delivering
citizens
dangerous
gentle
julia
wnba
wolf
brittany
practice
crooked
repeat
techn
americas
barrybonds
genuinely
griffin
ninja
nascar
anonymous
slightly
tyrese
recognize
specif
hundred
princip
bombs
bffl
nonsense
##leader
##lmfao
antonio
trifling
december
saiyan
spongebob
hispanic
leopard
leftover
amendment
unattractive
results
obamac
industry
harvard
weapons
satisf
imaginary
downtown
olympics
hulk
jameis
lgbt
tumblr
horror
inbred
invisible
attached
blaxican
spaghetti
pepsi
graphic
illiterate
teixeira
disrupts
laundry
environment
strength
familiar
handicapped
photoshop
1x
3d
34
3am
420
55
62
75
85
aar
aim
aight
aur
ayy
ayyy
bol
boney
bats
bond
billy
boner
cj
cob
coug
cage
cater
cave
civ
ccot
dot
dim
dash
dent
dak
dud
deter
dana
dict
dgaf
dicc
ehh
eww
event
econ
ewwww
egypt
fv
ff
fen
fot
fir
fos
fitting
fxck
fisher
gou
gea
gaw
gpa
ginger
hw
hired
honda
hubby
handy
iz
ijs
jell
jeezy
kd
ko
ky
kit
ker
kle
kent
kool
kod
kings
kkk
kfc
kansas
kinky
lv
loo
loooo
lah
lny
litter
lul
lance
lbs
lane
luts
mm
mh
mj
mck
mant
mone
mint
mun
mug
moke
mah
mng
males
moose
moles
mashed
nl
nu
nit
noo
nar
nash
nur
nine
nuh
nub
nile
nyy
native
nerv
nooooo
nfc
oc
oo
ove
ooooo
oli
oops
pad
pies
patch
pbo
pile
psh
pages
paki
rut
rir
rack
rows
roof
rival
sf
sas
sot
snd
spect
sized
sides
sippin
santa
sissy
ting
tut
tee
tang
tunch
tipped
tires
tables
uo
uuu
uhhh
va
vom
vint
vent
vib
viv
wick
wra
wond
waaaa
woy
waddup
yas
yee
yose
yooo
zoom
zomb
##lat
##las
##lad
##lip
##live
##lass
##lac
##aud
##mn
##mine
##mons
##mond
##mones
##mins
##sm
##sor
##smh
##pat
##pick
##pear
##pri
##pro
##path
##ni
##nis
##nut
##nys
##natur
##dm
##dn
##dat
##dog
##cat
##cant
##cash
##cers
##cause
##cist
##cup
##cue
##city
##cia
##cings
##count
##cmon
##iam
##ium
##iac
##ift
##ioles
##iantly
##kt
##kor
##kis
##kick
##kind
##gt
##gia
##gues
##green
##oe
##och
##uch
##hop
##hum
##hab
##hbt
##hrig
##yall
##yrs
##zs
##zo
##zor
##zie
##zidi
##ru
##rat
##ran
##rag
##rome
##rop
##rap
##rens
##rings
##rict
##tv
##town
##tier
##eon
##ext
##vv
##vet
##vable
##vited
##wd
##war
##wop
##would
##week
##washed
##fk
##fly
##fest
##fare
##field
##bes
##bie
##bies
##bush
##bler
##35
##70
##jays
##jah
##88
##80
thur
##itic
##itate
##inch
##inic
##inate
##esom
##esha
##ouri
##ching
##chill
##change
##ern
##erk
bitchim
bitchnigga
thewalkingdead
##anne
##onoun
youu
youth
tori
##cks
##ening
##encies
##enomen
hobby
##etish
##etty
##orld
##orial
##usion
##usional
##ige
##igen
##iggers
##iggin
anime
##isa
##kees
whom
whooped
##eall
##eable
beha
sht
shad
shant
shook
shown
sheep
##owa
ink
inning
inner
income
infr
informed
initi
liq
libra
lizard
andy
android
##omet
ons
onna
##vegas
##ares
##aroo
##aries
##arily
##leg
mel
meow
mellie
fux
fud
fur
std
stash
stun
stays
stap
stare
strea
stew
itd
itty
##iry
##irds
asl
##alp
##alo
trunk
trial
truuuu
troops
trophy
fuckt
fuckers
##idy
##aday
##advice
lovers
loco
lobby
##amm
##amous
forcing
##icians
hag
hazel
habits
##eeky
hoeing
chal
cheet
chipped
chik
cheeky
getcho
sod
sof
soap
##agg
##agement
neym
##osite
assign
upst
doh
dolo
herd
herb
##imps
##immy
##iments
##ella
nogs
justs
theyve
brow
brake
broth
brief
broner
##inty
notes
goon
##tering
outbreak
outrage
frat
france
fraud
friggin
##urf
##uren
##urda
heis
##ppppp
knee
reached
lola
abusive
##ateur
ween
wepr
webad
##ionist
##ument
##earrow
##essive
##essions
prick
prime
praying
prices
prostit
pronoun
cani
canada
reunion
recru
##estal
##estial
##estyle
##olk
##olving
mango
manches
alas
alge
alth
##stasy
subs
suffer
##erely
dread
dripping
draya
orioles
niggasbitches
##pel
sel
blog
blades
blaming
##ndrome
workin
worms
worship
everyones
booth
##itement
dev
devel
##abby
saves
##hav
badge
badder
clit
clan
clapp
clique
clinic
smiling
##enders
##endent
offering
##akley
##ongs
##feed
seein
seemed
##ista
needy
spare
spics
spurs
sperm
##obal
##ittt
slice
slang
slipping
slackin
##apr
##apes
backing
peanut
lettin
##rier
retired
##assy
##upa
guilt
lew
neverfor
comb
extin
arr
grant
grill
granny
grades
amateur
playa
byeeeee
##umber
scumb
scalp
eater
flis
flesh
flagr
flaming
overall
swirl
swift
evening
unite
unne
unpr
unreal
unkn
unbelie
actress
usher
hadnt
bul
buu
buys
idol
##yster
##ysical
stopping
afc
charity
charger
newly
dated
wannabe
diary
dipped
diabet
diapers
illino
##ahh
big10
coakley
moe
##then
##these
##thurs
##thearrow
agency
reds
redso
emma
emerg
embrace
puttin
dumber
##orning
condo
tease
cheers
cheats
chevy
cheering
mufuckin
mufucka
dismiss
discrimin
##awg
otha
##kini
##plain
pho
phr
phenomen
twitters
quad
fatter
hitler
carpet
stupidity
##next
cola
##berl
fel
feb
feat
##uls
##uled
##reek
##cient
##cials
wrist
wrists
awwwww
##eals
##ftime
##shine
##ucky
##ucker
wax
##iano
launch
##odes
okc
okies
crazz
stroke
strange
raising
razor
##ggy
follower
fines
finds
finishing
##bros
##bread
##broke
pau
maria
marvel
haired
##ocra
fighter
##hhhhh
harden
hardest
remo
maid
maam
snugg
gayvegas
puke
puppy
singer
prove
proves
bruhhh
prettier
eliz
freezing
minor
minds
minimum
misses
missouri
opens
##eyes
pleased
prem
swearing
desi
deses
appl
apply
global
ours
paras
paris
muscle
##irect
joining
fold
foxx
worldcup
heav
hopeful
sinc
pullin
2010
lads
perman
perpet
permission
perhaps
baes
bail
handling
surely
owns
##ifer
1069
lighter
mocking
##ilyn
tommy
##otte
sonia
##ardson
whatsoever
cael
##log
counting
skip
skank
skull
skanks
##ooming
selfs
bark
mustve
passes
password
messi
picks
pickin
pickles
factory
catchin
topic
topics
legends
curl
curly
curious
mikey
defiantly
##ughty
##sole
##ibility
access
clever
lowlife
sites
complet
compliments
starving
policy
homes
homoph
wetter
commies
openly
##ddie
helping
helmets
soundcl
childrens
boof
setting
smellin
shoots
100k
checked
flavor
kickin
karlie
holder
geno
gene
hatred
posts
treatment
##bitchbitch
drunken
planes
milks
squir
squid
rocking
rocked
##inson
speaks
confusing
fuccn
fuccin
terrif
##going
##goals
##eeeeee
grande
midget
nuthin
patron
raping
tasted
meeting
register
naughty
indep
indirect
sweethea
riders
##flur
horn
horosc
hormones
almight
firecash
suppoed
cockro
esco
quickly
harm
rolls
##ymes
compet
compare
bij
bible
biology
bikini
scarf
hahahaa
hahahah
positions
snail
snakes
##formers
johns
edge
irri
jigga
mcflur
corpor
robinson
##efits
bench
benefits
jackie
jackass
jackets
jackson
jumps
jumping
massive
##nessee
lickin
deeper
lesser
serv
sunset
sunshine
subway
suburb
pieces
smacked
budden
penn
pengu
penns
viet
steven
braids
goldfish
jesuschrist
anglos
bossy
kimorab
olive
acid
bites
syndrome
sentences
greene
burr
darkness
papa
papers
papoose
freaking
durag
fools
foolish
tricking
trainers
answering
answered
hunger
hunned
##vision
steps
boxes
parker
dmx
geor
gehrig
gangster
pancake
memory
floating
fingered
photograph
ranch
virus
virgins
smaller
hahahahaha
##axy
propose
propey
kej
turkey
sweats
bowling
##paint
worrying
buckets
##uuuuu
eggo
magical
norris
sharke
invited
fukn
disrespected
stressing
auto
camo
hidey
hideous
possession
visiting
yasssss
antig
celebrating
cashier
cumming
japn
rains
##cessary
politicians
bangers
jealousy
opposite
riff
versa
versace
wallet
##burger
lifetime
choked
choices
constant
rubes
rubber
wizard
issued
covered
humanity
btown
ps4
polls
seniors
##ija
ashy
ayeeee
bummy
bunnies
creating
creator
blessing
reference
referring
999
bumped
fills
filling
hunters
##minist
chanel
soldiers
spazz
england
breathing
dumped
equals
pineda
packed
tanning
depends
opinions
costumes
titan
titles
tennessee
toughen
wendy
angels
idiots
wifed
evolved
evolution
ticket
temple
temper
wednes
studs
impression
solution
spooks
spooky
acceptable
14th
3000
freck
flew
incre
chucks
superior
slaught
reminded
snitching
hypocritical
detail
jenny
siri
victim
victory
##niggas
##words
injuries
crossing
unique
universe
paula
dissing
eagle
pacers
witchu
hookers
froze
severed
closest
creeping
bbw
cases
dipl
distur
piercings
yesss
yessssss
nohkor
delusional
election2014
albums
episodes
custody
destiny
khal
miracle
pitiful
sarah
stuntin
chains
updated
crushed
blasting
grammar
scandalous
flaws
flawless
terrorism
giraffe
ronnie
searching
tendencies
##nesota
##cape
##rupted
dodge
dodged
fantastic
nerves
stinky
armor
conceited
legendary
bengali
violent
violence
sandwiches
email
gtta
gatorade
katy
katr
muham
muhfuckas
sources
yezidi
bruins
bruises
backpack
adults
celestial
estab
gardner
limited
elected
electric
valentine
peckerwoods
central
error
mccann
rarely
hooked
wheels
alien
arabic
codes
commercials
##iiiii
insults
disgraceful
embarrassed
gospel
tigers
tacky
tackle
##rigue
reviews
organic
organization
##hawks
pepper
rooting
healthy
irritated
describe
bothered
dummy
giggles
pitcher
tune
##piece
hostess
shrugs
hacked
crisis
rebels
screwed
charlotte
divorce
promoters
hoosiernation
announced
victorias
islamic
dougie
tipsy
##better
therapy
beginning
primary
remains
buffalo
convince
convinced
disappear
disappoint
commitment
saltine
extremely
consistent
pineapple
jennings
citizen
effo
gemini
jessica
nugget
##daddy
shmurda
infections
sterling
stabbed
bruno
manager
floppy
bubbles
admits
robeson
constitution
privilege
cycle
fabulous
galaxy
hidden
munching
nhl
occas
reelected
sympath
vocab
vampires
##michelle
##ylvan
wherethey
indycar
trannies
##american
dolphins
allergies
cannon
##ribute
guidance
scorp
uninvited
ghettosdri
adopted
appointment
cocksucker
intellig
stephen
latinas
1996
breezy
csgo
caddy
ecstasy
jamaica
maaan
mountain
qaeda
tgdn
tinker
vitamin
wiscons
wardrobe
##slap
##yearold
license
stylish
ashton
trippy
trayvon
bryant
frustrated
process
regret
separate
climb
##ribution
bytches
africa
craziest
machine
accurate
ridiculous
comparison
coworker
nominee
tempted
microwave
acknowledge
april
ichiro
journal
noodles
ounce
pirates
tiki
yaself
tornado
whilst
stereoty
assault
november
priorities
oranges
clippers
goodmorning
guitar
gullible
betrayed
arrogant
bigotry
advanced
paranoid
strawberry
recommend
traphouseeee
antisem
temporary
criticises
macklemore
technically
obamacare
aaron
duddy
fvck
gouache
kentucky
lnyhbt
lutsen
mngop
nashville
nurse
nervous
vintage
woyke
yoself
##sorry
##natural
neymar
brothas
wepretty
manchester
algebra
develop
neverforget
extinct
flagrant
unnecessary
unknown
unbelievable
redsox
1069thearrow
homophob
soundcloud
firecashman
suburban
pennsylvan
anglosaxon
kimorablac
wednesday
nohkorea
ghettosdriven
wisconsin
02
1am
2a
2x
2n
2pac
37
38
39
42
4get
52
53
57
58
56
5am
6p
66
83
92
94
910
aub
acl
ajay
bk
bis
bip
bong
bain
batch
bans
bich
bama
bach
bord
bball
bung
beam
batt
bib
bby
brew
bbl
bvb
cm
ci
cer
cnt
cone
cast
cem
cine
cable
cush
dood
dab
dive
dough
drew
dora
dingy
eem
eth
eddie
ft
fas
foo
fuss
fend
fists
gd
gore
gil
gass
goooo
gel
gump
gord
gung
gamed
gates
geez
gooooo
gators
hv
hitch
hut
hir
huss
hash
hans
hitter
hib
hrs
hiphop
hyster
il
ie
iight
iced
irs
ivy
icon
iwant
iowa
jt
jas
jst
jug
jumb
junk
jco
jax
jorge
jarr
jingo
kl
ku
kom
kate
kob
kaw
kang
kapp
kerry
kuz
kitten
kesha
kmichelle
lor
lust
lur
lha
luh
lure
lhh
lens
lond
lube
lined
lsu
mes
moo
mop
mend
mfa
mqu
mign
meter
maaaa
mamas
ns
np
nw
nf
nos
nate
nra
ngg
nif
nina
noooooooo
naming
ost
odd
ocl
pw
pum
pest
pnd
pue
panda
qb
qbs
ris
rout
rash
rab
rays
rats
rating
rican
ratt
rush
rino
rants
ruff
roos
racks
rates
ripping
rope
rko
risk
rangers
rupa
sets
sals
sits
sesh
serve
sane
session
sierra
sassy
tk
tj
tas
tnt
ties
tfe
tide
tuh
tire
tier
tether
tinder
tshi
uc
uck
von
vall
vill
vip
vra
veter
vmas
vital
verm
wag
weep
wyd
xmas
xav
yak
yoooo
yuck
zich
##lu
##lea
##low
##long
##law
##lings
##az
##aire
##met
##mall
##mill
##mack
##mie
##mil
##mally
##most
##money
##mble
##mama
##mouth
##made
##mark
##mates
##sed
##spr
##school
##pd
##po
##pit
##pes
##pell
##pse
##pies
##past
##prea
##punch
##person
##pier
##point
##nor
##nos
##nds
##dom
##ders
##die
##dem
##dawg
##call
##cont
##cell
##cost
##care
##cunt
##cise
##cult
##comb
##cars
##cumber
##iant
##ione
##iffer
##ierst
##ivers
##iked
##iya
##kill
##kur
##kies
##gj
##gen
##gies
##gain
##great
##ghan
##greg
##oa
##oor
##oqu
##oons
##oable
##uk
##uous
##uable
##uction
##uations
##hu
##hy
##hr
##hus
##hot
##hill
##him
##hake
##hun
##hol
##hink
##hha
##hia
##hank
##hott
##hrs
##hoops
##hiphop
##yn
##yer
##yth
##york
##zed
##rant
##rie
##run
##rol
##rain
##rats
##rari
##tor
##too
##tar
##top
##test
##toth
##turb
##ean
##eous
##eating
##vile
##vention
##vada
##wer
##wny
##water
##wking
##women
##wtw
##fan
##fut
##fam
##fos
##fie
##food
##follow
##father
##fire
##folk
##2k
##21
##bit
##bus
##bone
##bear
##best
##bug
##bling
##bino
##bull
##birds
##34
##76
##jk
##job
##james
##jeter
##17
##19
##60
##45
thx
thn
thus
thoo
##itude
##itled
##itism
##ination
##esis
##oul
##oure
##oust
##cht
##char
##child
##erd
##eroo
##erved
bitchs
bitchi
##atw
##atar
##atter
##atta
##atme
##ativity
##lll
##lls
##lless
##inging
##ani
##anch
##anim
##anies
##ania
##annnn
##onn
##onic
toast
toky
##cky
##ckless
##asant
##asht
hopp
holo
hoeth
hopping
hogging
##etor
##etal
##etery
##etts
##edly
##edto
##edge
##oring
##oral
##orms
##orize
##ormed
##usm
##usions
##usetts
##igate
##otard
##otto
##otron
##otrash
anotha
anarch
ancient
##isl
##isin
wholes
whered
whippin
whoops
whiggers
##eads
beet
bever
befo
begging
beware
beiber
shin
shre
shee
shag
shore
shud
shost
shery
shaft
sherman
shmedi
shiii
##utional
thatd
##ooby
##ooping
##owe
invent
inhale
lik
lion
lien
libr
libs
##rey
##reets
##reement
##omi
##oming
##oman
##omore
onto
myster
mysp
##left
mei
meh
meer
mell
mewtw
niga
nighas
fufu
sting
sten
stor
stro
steam
stable
stef
stubb
stores
bitchesniggas
ita
niggga
asians
##alea
trad
trag
trim
troj
truuu
trucks
fucka
fuckn
fuckd
fuckem
fuckkk
fuckboy
fuckkkkk
##idas
##idays
##adel
##adise
imik
impressed
loan
##amania
forms
forced
forrest
##onte
witout
##ici
##icing
##icies
##icap
##icity
##verbs
haj
hairl
hail
hairst
hawa
within
##anti
chi
cham
chos
chem
chile
chased
chops
chili
soggy
##again
##agger
##agrace
neon
##illas
##illiant
##osi
##osting
asss
yourselves
gota
gott
ups
upp
upgrade
upppppp
dock
dodo
dogging
niggaa
##imid
##eller
##elling
##ellow
noi
noone
brb
brut
brom
brid
brick
brave
brett
brandy
brilliant
##esel
##esex
atm
atbat
goku
whens
##acker
##ightnot
outa
outs
outlook
outdoor
frame
froh
frosting
##ural
##ickers
sheet
sheens
sheesh
##ceived
heh
heck
##ctus
knob
reall
reads
reagan
abd
abuse
abused
web
weer
weis
weiner
##ionally
##ionary
##umin
##eard
##earing
proll
prose
prize
predict
twent
twitt
twel
tweef
##unny
##unks
cries
crumb
crys
craw
crists
cruel
cripples
cano
reb
reci
reath
rebell
reggie
rehab
reckless
##estic
##estreets
##olf
##olas
##olve
alo
alice
alfr
##stand
##stock
##stra
##step
##stein
##stairs
faget
drill
drain
drud
drose
drool
dried
drank
drier
drippin
drizzy
ordin
orders
##andta
##ardi
##ilit
##ilar
sequ
section
seeds
select
blat
blas
blues
blacc
plug
platin
pledge
loveit
board
boil
##astones
deer
dean
defa
##aba
##abc
##abitch
##about
##abird
##abeth
sac
savi
sakur
##have
##hawn
##hakes
fax
faker
fawking
bada
badly
yoda
cla
clip
cliff
claps
clients
cud
cucumber
##ipher
##ipline
##ipts
smurf
##endo
birkin
offered
seeee
needle
spite
spons
spots
spiked
goodness
##ively
##ittari
slash
slur
slips
slits
sliding
slippin
slander
yacht
backup
reals
realist
makem
##tale
pecs
letr
lethal
##uge
##rian
##rien
##riot
##riches
##riwal
retro
retirement
dafu
dairy
anyones
##booty
hateful
##ocks
guide
leb
leon
leotard
excl
betting
arsen
grud
grows
gratat
gonn
amo
amy
ammo
amusing
playen
playground
##umbled
madison
scoop
scores
##ollo
##ollies
eattin
flames
flows
##emp
##ember
##ffy
overd
overly
overused
rights
righttt
righteous
sws
swish
swings
swept
swamps
##rah
##raft
birdhouse
uns
unk
unh
unre
unlock
unblock
unhappy
##eaks
dicked
usc
usin
downs
downloaded
downstairs
idont
stops
afghan
charco
charges
theirs
newest
newyork
dif
dial
diff
diversity
division
diesel
##aco
##acing
yank
mofos
yeaa
teapot
##thin
##thed
##them
agent
agenda
agreement
emo
##ubbs
thrill
putin
##orney
conan
conse
conven
concent
connor
tele
teasing
tebow
cheeri
chewing
##meat
mufuckas
disp
disab
disney
dispers
##aws
##awards
somwhere
cutest
cuteness
urs
womens
sometime
phara
physical
quads
##anged
carne
carlt
carried
watchu
watches
watchlike
##never
##neys
thoe
worker
workers
colon
##izer
##izon
##bern
##00000
staer
niggerfag
coupe
couples
febr
featur
blackish
##ulation
##ulated
##ulary
monro
monog
mondays
writes
writing
##fact
##faves
##facts
awar
awwww
showers
##ealing
scholar
##shes
##show
##shop
##shots
wells
##roz
turnin
turner
payin
payed
bestf
waar
waving
waves
afterno
probs
lasts
lasted
header
headphones
sidelines
##iana
##iance
adv
adve
advant
administ
adidas
meaner
lava
##reads
##really
shutcho
##getit
##getin
ends
envy
encour
pooted
attorney
strips
straps
strangers
happycol
rave
raff
raider
raiders
##qual
##quad
##quito
##ggin
followback
tons
finer
finan
finest
finessed
finale
##brain
pace
papp
highlight
highschool
marks
marath
marilyn
hairs
##oca
typing
##ension
maya
remy
maher
reserve
research
resolution
rescue
reserved
##because
sno
sneeze
demons
democra
yeswed
waitress
gifs
leads
singles
longest
lotion
##umpy
friendship
elbow
freeway
minnesota
##prob
popz
popeyes
prep
prey
prez
throwin
desire
glow
winds
winnin
##achusetts
parks
parked
paradise
musc
instant
instruct
weekends
strait
##please
##perfect
omgggg
##athe
##athan
breakup
pulls
perm
perf
supply
suppos
sleepy
sleepover
sorrynot
bahaha
baenders
coolin
content
contain
handful
ballet
##grown
daddies
roy
roots
earrings
summers
sumthin
##vory
dylan
owning
##ifies
##ifting
##ifah
##ifying
##hahahaha
10x
105
10th
wifeys
sonic
personally
cale
cactus
countin
counter
skid
skate
skating
skyr
sketch
pointing
barn
barbers
lists
##mylife
halftime
maine
races
messed
interference
picker
##cript
legisl
curry
curving
curled
curios
mij
menu
menace
##atti
leftist
endors
favoriting
chrome
typebad
##sold
##ibate
accused
cleats
unto
deadly
starve
happily
poland
polite
polosi
homosexual
wethel
commas
committ
commence
##ddddd
apollo
camels
lineback
ahs
ahora
soundtrack
warfare
childhood
##mmm
boost
boozer
thankful
checkin
recon
recap
recount
refs
refund
reflect
refuses
denver
denzel
denkt
karl
##141
holdin
racists
easiest
eastern
genet
riches
richardson
planks
planned
milwa
squash
squinty
coldest
bagging
##ithful
beds
bedroom
rocky
rocket
##ttttt
survi
speakers
movement
understands
ratchets
fronting
confidence
fucccc
##gov
excessive
excitement
hangout
hangover
adding
addition
midter
rapist
hoodrat
flyer
flyest
kissin
purch
cheatin
hills
naz
nazi
##2012
indi
indiv
indones
lmaoooooooooooo
meds
pissin
rides
horrif
negativity
johans
luckily
restrict
suppoer
##which
##whats
relationshipgoals
calories
hardy
harsh
harassing
harbor
##uffy
##uffin
fanboys
souls
soulless
loses
scarlet
underground
perfection
hallway
tomorrows
hungarian
hungrier
murk
poses
posing
poster
snapped
decipher
familys
filet
filed
filter
juan
july
potential
mansione
edm
iran
irony
mcna
mcbob
##young
##ective
presence
presidents
corrupt
wohs
extr
laughs
benny
jumper
jumpers
massachusetts
similar
wiggy
wiggas
licks
licker
licking
hugged
hughes
lessons
served
sundays
30s
dealers
touchin
subbing
subhum
spraying
expand
exposing
##aaaaaa
erica
publicly
bluejays
smackin
lmfaoooooooooooo
lmfaoooooooooo
budd
budget
buddies
penet
penny
pete
ricky
viagra
##neth
shift
miller
##iously
golds
controll
thicke
angle
promised
promises
christians
kimball
moreno
signific
windturb
shouts
intention
intense
intimid
##racted
biting
sentiment
wacko
proudly
drives
burg
darkies
impro
imperson
impact
impeach
imperial
freaks
stronger
113
110
1112
fooled
##bbb
beerandta
trains
trainer
trained
buttons
rappin
donny
donald
valerie
valuable
scrap
scroll
dmd
dani
gangsta
gangbang
paner
panic
panera
necks
floors
bombing
bombed
latifah
pimping
virgo
thuggin
absurd
secondary
weaves
totes
hoosierst
studied
props
rudy
ruining
deaths
judges
##ethis
twinkle
worryin
##uuuuuuu
banks
corners
cornbread
magn
normally
sharpie
sharpen
involved
courage
captured
samples
sammich
changeth
broski
deleting
officers
disrespecting
booking
dini
motion
motto
mutual
riprick
yassssss
throats
feeder
feeding
##yyyyyy
celebrated
celebrities
jewel
pushed
##omfoable
cuhz
banging
mask
opposed
oppress
panthers
##queens
lifting
##vernment
choking
sneaks
derekjeter
kany
grabbed
coverage
btch
burns
matches
rosecolored
senator
shaving
ashley
slappin
peaceful
21st
ayee
ayeee
tuku
##compl
referee
huntin
jamming
jammin
lamest
vanilla
##after
##eezus
channing
dragged
florid
engine
engaged
engagement
applebees
entirely
250
20000
fitz
tanks
shawn
trued
chinas
depot
depend
depament
spokes
screenshots
condem
conditions
teenage
figuring
russel
vegan
##dragrace
##yankees
tower
weights
liberal1
explaining
digger
digits
digging
fergie
veh
##ophone
credenti
subtweets
draws
##boxing
attacked
roads
settling
baldhead
domes
freem
freesty
fixit
jimmys
umightnot
##annas
##anyone
incidents
bragaday
protected
supreme
switched
switcharoo
recorded
batter
bathing
htown
jenna
oscars
roman
sonsof
##airie
injun
stomped
debating
grindin
flower
univers
2016
considering
dissin
flexing
micr
palin
hooker
discipline
##hhhhhh
taxi
bbc
baths
distribution
nailed
piercing
##lavery
##belike
innings
prayers
splurge
illegals
regarding
bottoms
circus
vegasqueens
idiotic
azalea
khan
khloe
lyn
lyfe
pitbull
crushes
replies
gradu
scandalabc
##rrrrr
sweaters
gfs
girly
hennes
hustling
moses
painful
peeped
raging
tender
toeing
lipstick
challenges
dodgers
degree
moanin
maryland
muthafuckin
muthafucka
fbi
fouh
ramon
rambo
roster
yuhh
thursdays
infin
infant
trolls
##iliation
uncalled
uncomfoable
funnier
skylar
apologies
spreading
violets
officials
ahah
eurotrash
emails
malib
malware
source
woah
necessarily
bruised
brightest
outfits
delivery
descended
eaglesnation
lesbians
suddenly
avatar
coochie
celibate
hammer
pounded
rallys
seagu
seahawks
limp
stockboy
chav
chiefs
brooks
blankets
uniforms
characters
projects
approve
interviews
catfished
niqqas
correctly
tattooed
cinco
httr
pedestal
widd
##looking
##mium
hooks
ankle
whitet
shallow
receive
receipt
drowning
drowned
arabia
becoming
designed
threatening
threatened
embarrassment
gosling
mattress
rhymes
tdf
tapes
ummmm
associate
defeating
peppers
##boarding
empow
gloves
signedtoth
irritating
describes
duke
dunkin
gutter
gurley
linked
ptv
sagittari
verizon
shrimp
travel
immig
franc
franch
prosper
produced
requirement
facetime
scrawny
diamonds
cheerleader
barbie
survival
educated
hoosierdaddy
announce
vegeta
repoedly
louisville
psychology
protests
avoiding
bumblebee
bumblebees
cosby
joseline
nagging
vacation
##broken
stains
##onths
##onthis
remain
##peoples
##umbusday
functioning
wrestling
wrestlers
snatched
personalities
annoyed
jennifer
lolololol
delivered
bashing
geekin
ihop
jonas
joshua
kikes
nuggets
pudding
rumors
wyoming
##matters
hooping
infected
itchin
trinna
chirping
freddy
practically
bubba
connect
connects
skippy
properly
responses
possibly
possibility
privileges
progressive
fifa
loosing
mudda
munchies
oakland
occup
pcworld
pearl
radical
rodrigue
vampire
wobb
zoe
livest
megat
melts
melted
trapped
trannys
chasin
chaser
allergic
relief
planted
declared
spineless
flooding
uninformed
mullet
mullets
rachel
snipers
preparing
prepared
religion
religious
squiing
confirm
confirmed
lawyer
lawyers
powdered
inspiring
intellect
gangsters
talented
aeros
cassidy
catholic
dedic
dedication
dunked
jockey
maple
pittsbur
pouring
sixt
tammy
tampon
##culate
##course
tolerance
##keeper
mythical
nigerian
treadmill
chappell
chappelle
sophomore
allegedly
criminals
segment
spanked
yaaas
unfair
unfaithful
modern
stafford
enforcem
enforcement
marshmall
provide
surfboard
surrounded
unfounate
unfounately
honestyhour
judgement
cameras
approaching
destroyed
executed
authority
bicep
elder
ferrari
houses
ipod
latte
niece
signing
zonenn
zijn
##orsemen
lifted
tweekin
twatching
revisit
depressing
uncivilized
convos
concede
eliminate
mushroom
objects
warrior
recycling
errybody
angloamerican
memphis
mtvhott
celtics
volunteer
paicipating
specifically
satisfied
lgbtq
coughing
catering
civil
dictionary
eventually
economy
gawd
kermit
looooool
lahhh
moneys
nubile
rutgers
riri
sasuke
tutu
tunchi
uoeno
uuuup
vomit
vibing
wicked
wrapped
wonders
infront
fudge
chalmers
upstate
broward
recruiting
although
clapping
lewis
uniteblue
diabetes
illinois
dismissed
phenomenal
felony
##ulsdragrace
crazzzy
elizabeth
premature
worldcup2014
heavily
sincerely
permanent
selfserving
independent
horoscope
almighty
cockroaches
corporate
penguins
vietnam
burrito
photography
kejriwal
freckles
increase
details
disturbing
khaled
katrina
rebelscience
hiddenc
vocabulary
homophobic
pennsylvania
2nite
biscu
bipolar
ciara
cemetery
gilbe
gordon
hussein
jumbotron
jcole
london
mquina
mignon
nifo
ostriches
oclock
pumme
pueo
rashad
rupaulsdragrace
salsa
tfeh
tetherball
valley
vraag
vermont
xavier
##pitiful
##culture
##charlie
tokyo
hopper
sheryl
library
myspace
mewtwo
stefan
stubborn
chosen
frohorsemen
prosecut
twelve
recipe
reathie
##estreets2
alfredo
##astonesleft
default
dafuq
exclusive
arsenal
gratata
swishers
swampscott
afghanistan
charcoal
cheerios
pharaoh
carlton
watchlikeaking
february
featuring
monroe
monogamous
afternoon
happycolumbusday
marathon
democracy
yeswedid
sorrynotsorry
##cription
curiosity
wethelastonesleft
linebacker
mansionelan
subhuman
significant
windturbines
sentimental
beerandtacos
hoosierstate
credentials
umightnotgetin
bragadayjah
hennessey
signedtothestreets2
sagittarius
rodriguez
pittsburgh
marshmallows
mtvhottest
03
00
01
06
09
1v
1b
120
162
1ubb
1141
2f
2b
2man
220
2par
2yrs
3k
3b
31
314
313
315
3some
4s
49
5s
5k
5o
5000
6m
6s
63
69
630
7s
711
87
86
8am
810
830
97
91
900
ai
ao
ave
aly
airl
aven
ary
aich
a10
ayyyyy
bp
bj
bot
bint
balk
bood
boug
bass
bool
bxt
bbs
bour
bho
bows
bount
baked
bwa
bitten
bizzy
boned
bashed
biiii
botch
bingo
boppin
c4
cate
ceel
cory
cork
caked
cept
cattle
caged
cpac
creek
cotto
dd
dant
dos
dome
dame
dong
dose
dys
dwn
dye
dimes
dino
dork
duct
dull
dirk
ez
eit
eug
ease
eps
eeeee
e25
egreg
fc
fk
fg
fad
fie
fse
fst
fand
fite
fuse
fian
fence
fif
foun
fier
fanny
fount
fij
ferry
fkkk
fkn
fetish
gz
gb
git
gat
ging
gad
gust
gill
gna
gate
gans
gep
gary
gals
gino
gosh
gerry
goods
gaps
gaming
ganks
greek
hp
h8
hin
han
hint
hent
hive
hitt
hind
hanna
hunk
hiv
heeee
hides
humbled
ic
iv
ib
iq
iite
igot
ibs
iii
icing
ilove
iwatch
ivory
jp
jh
jb
jes
jed
jal
jad
jum
jere
jab
jays
jitt
jank
jace
jakes
jode
juel
jelly
kc
kou
kee
kun
kame
kore
kil
kip
kong
kem
kra
kub
kia
keri
kats
kunt
kors
kesh
keg
kok
kane
kyle
lp
l8
ler
las
lig
lis
lent
lays
litt
lud
lind
lass
lool
lys
lous
lms
lames
lung
loop
luuuu
laps
lashes
lapt
luda
lounge
looming
mw
m4
mea
mash
mitt
mead
mme
maw
mare
mcr
m20
mosh
mints
mjs
mollies
nb
nay
nont
nim
nint
nunch
nach
naaaa
nations
nurs
naaa
nwa
nsa
naaaaa
nathan
nuffin
ox
oi
oj
oll
oven
oys
oss
oath
ovo
ode
ogs
pp
pd
pg
pes
pis
pag
pand
pak
pob
pup
pff
peel
pang
poth
pens
pets
pama
path
pits
patt
publ
pouch
posed
packs
pik
piers
pund
rs
rp
ry
rf
rus
ral
rust
rol
roug
reel
rah
rage
rul
rft
roth
roc
rames
rips
rib
ramp
rio
roles
raaa
reek
ranger
rippin
rusty
rising
ritz
sb
sq
ses
sid
sill
sake
sess
sump
sales
sush
sza
sacks
sided
sighs
ts
tus
tad
tic
tent
tna
toug
tys
tia
tying
tater
tales
tasty
tina
tino
tense
tator
tilt
tipping
tubby
tules
tisk
tpot
toure
uu
uv
uf
uit
uch
uta
uigh
uzi
uchi
vp
vid
vic
vee
vast
vap
vday
voll
vans
vcc
vics
vandal
vader
vdawg
ws
wp
wt
wld
wout
wim
wun
wip
woooo
ware
wno
wthe
wode
wuz
wires
wya
woody
wbu
wongs
xs
x2
xmen
xbone
xfact
ym
ys
yg
yh
yoo
yar
yun
yds
yeet
yug
ymas
yada
yooooo
yeezus
zor
zee
zack
zak
zeet
zipp
zzz
zog
zeg
zoned
##lou
##lig
##lay
##lic
##lick
##lil
##last
##lfe
##lost
##lah
##lbs
##lby
##lins
##lene
##ait
##aid
##aall
##aak
##aide
##aoke
##alex
##aze
##aurs
##mv
##mj
##mes
##mom
##mic
##make
##mun
##mith
##mode
##mester
##melling
##says
##sons
##slist
##xic
##xist
##xican
##xico
##pi
##pon
##put
##pop
##pun
##pest
##pap
##pass
##pound
##pool
##porn
##pets
##phere
##public
##peech
##nf
##nat
##nake
##nand
##nia
##nets
##nasty
##nessed
##nuts
##nicc
##nival
##nvm
##nesty
##dit
##dou
##ded
##dis
##did
##dick
##date
##dess
##dest
##duck
##dump
##dance
##dict
##cck
##cas
##cen
##cor
##cre
##cal
##cuss
##cee
##cook
##cum
##cry
##cool
##cans
##ciss
##cage
##cats
##cards
##cute
##cants
##cuff
##cony
##cato
##cending
##cils
##ciliation
##iat
##iar
##iop
##ioh
##iian
##ioc
##ika
##ieee
##ionthis
##kay
##koo
##kid
##kos
##kings
##killed
##gl
##git
##gay
##gal
##gant
##gun
##give
##gans
##games
##gory
##ghin
##gling
##geeks
##ov
##oly
##oft
##oye
##oord
##oked
##uw
##uer
##uan
##upp
##una
##uard
##uah
##uuck
##ucing
##hi
##hall
##hant
##home
##hese
##hame
##hard
##hend
##hound
##hub
##hile
##high
##hner
##hops
##hfuckin
##heard
##yc
##yon
##yme
##yellow
##zan
##zos
##rg
##rot
##rack
##rak
##rob
##rug
##riss
##rice
##rence
##rance
##rush
##ressed
##roblems
##raged
##tea
##tall
##tion
##turn
##tour
##tits
##team
##trow
##tiest
##tuce
##ei
##eb
##eck
##eis
##eve
##eid
##eld
##eime
##eva
##vd
##vr
##vw
##v3
##vab
##vide
##vine
##vity
##via
##win
##wid
##wad
##wash
##were
##wast
##witter
##wire
##wax
##wreck
##woman
##wolf
##fw
##fit
##fig
##far
##fake
##feel
##foh
##faced
##fetish
##2g
##27
##28
##bal
##bun
##bol
##bah
##bother
##burn
##bih
##buck
##boss
##bama
##bach
##brew
##bites
##bility
##brell
##3s
##36
##312
##jd
##jan
##jon
##jad
##jab
##jud
##jih
##joh
##jama
##84
##0s
##1st
##1000
##65
##48
##41
##90
##50
##500
thy
thas
thom
thri
thigh
thump
thund
##itan
##itor
##itall
##itest
##itaw
##iture
##itian
##itating
##itably
##itenti
##inz
##inet
##inis
##inke
##iners
##inent
##inem
##inbr
##inning
##inator
##eses
##esar
##esnt
##eskin
##escending
##oup
##ouds
##chm
##cher
##chter
##chain
##chap
##chang
##chef
##erad
##erant
##erga
##erator
##ernational
##erati
bitchn
bitchd
bitchk
bitched
bitchass
bitchthey
bitchslap
##atown
##atra
##atable
##atized
##atdo
theo
theor
theee
theft
theater
##lla
##lli
##ingin
##ingyou
##ingthe
##anning
##anno
##anuts
##anberry
##anarch
##oni
##onk
##onen
##only
##onight
##onest
##onents
youuu
youza
tor
toot
toos
toto
torr
toots
toward
toaster
toront
toillas
##ask
##aso
##aser
##aside
##asites
##asaki
##enz
##ened
##enow
##eners
##enate
##ename
##enup
##enger
##enced
##enjo
##enix
##enters
hov
hoet
hoea
hooo
hose
hori
hogan
hoppin
hohos
##eted
##etard
##etob
##etry
##ethe
##etective
##eding
##edian
##ordy
##orically
##usa
##usage
##ushin
##usky
##igo
##igga
##otin
##otty
##otbad
ana
anna
annn
##isis
##isme
##isaw
##isms
##isket
##isbee
##kell
##kelly
##keys
wht
whut
wham
whop
whist
whities
whipping
whale
whiff
whooooo
whigger
whaddup
wheat
##eaux
bej
becky
beggin
shat
sham
shack
ship
sheri
shank
ships
shaded
shakes
shops
shimmy
shiiiii
shifting
##uting
##uted
##ayin
##aybe
##oove
##oold
##oovy
inno
infer
inform
inev
incompl
liar
liver
likk
libt
libey
likka
##rex
##reate
##regn
anderson
##omo
##omic
##omie
##ommy
##omatic
##omnia
onea
ongest
mybaby
##velect
##arf
##aring
##arre
##arma
##arys
##armed
##argue
##lee
##lees
##leck
##legg
##legged
mein
meme
meets
mega
meeeee
meij
meeeeee
nigor
niglets
fuh
fuq
fuel
fukk
fuking
fuzz
fuuuu
furn
fumble
stan
stow
stir
stack
stats
stunk
stump
stance
stamp
stones
stoneip
stations
stoop
stove
storm
stamps
stingy
stream
stackin
stiffer
stoked
stoni
ish
istand
bitchess
bitchesyou
bitchesbut
itim
itun
ittt
itbut
items
niggs
niggay
nigggas
likebut
##irri
##irical
ast
asha
asia
asci
aspir
##aly
##alag
##always
##alty
##alog
##aldo
##aluate
trout
trop
trends
trump
trips
trib
tract
troph
tracy
trasht
trunks
fuckas
fuckked
fuckkkk
##idad
##idest
##adom
##adem
##adder
##adeaux
imy
images
lop
lov
lob
loot
lois
lold
lobs
lohan
loads
logged
##amar
##amad
##amity
hoesand
hoesyou
forie
forest
forces
forged
forgi
formal
forcin
forgive
foreskin
##ussels
##ontas
witnessed
##icem
##icting
##icine
##icorn
##icia
##icul
##icles
##icial
pussay
thisty
pussywh
pussysold
haunt
haitian
##lda
##lds
##eeet
##eever
##eezing
witha
hoeher
chy
cher
ching
chalk
chab
chong
chih
chatt
chugs
cheez
chubb
chair
cheek
chuuu
chaps
chira
chester
chimps
gett
getup
getlost
##lys
##lying
##lypear
soho
##aging
##aget
##agus
##agers
##agirl
neo
neut
neil
nelly
nels
nemo
nevada
donts
##illos
##illac
##osk
##osha
##osophy
##ostale
##osaurs
##osphere
assy
assure
assump
gotcha
upt
upside
upton
uppers
uploaded
dove
dogg
dozen
alll
alla
allll
allied
allllll
herma
herhim
hernand
butler
##imm
##imal
##imper
##ellis
##ellite
noy
nov
nofl
node
nobel
noisy
nobrain
nobility
ifwed
##opp
##opath
##opoly
##opatra
##opostale
justify
brat
brone
brend
bride
brass
braw
brunch
brooo
brace
brush
brows
brony
brides
brakes
braces
brolic
brotha
bruda
brushes
branch
brisket
##inton
##inted
##international
notions
notification
atg
gods
golly
gobb
gobble
goau
gobrowns
govelect
shitted
shittiest
wasps
##tered
outman
outback
outcha
outgoing
fry
fren
frown
frost
froooo
frog
froy
frito
frisbee
##url
##ura
##uri
##urnt
##urian
##urger
shego
shelves
shelby
some1
##ersons
##ented
##iem
heim
heff
heft
hebrew
areas
##ctose
##cture
knife
knives
lol300
##nails
abc
abou
abed
abus
abra
abby
##ategy
##herlands
##umn
##umatized
##sex
##section
##earon
##essful
##essss
prol
prote
procr
prairie
prenup
whatd
whatab
whatta
whatcha
evercl
twenty
##unday
##dson
##dsay
cring
crus
crop
crab
crip
cripp
crunk
crunch
croch
cranberry
knowww
candle
canyon
reed
reid
rely
reass
reich
rept
reps
revel
recept
rebu
rewr
##makers
##estion
##estand
##estive
##estory
##estadium
##esthat
##alking
##olon
##oline
##olves
##olored
##olina
##olics
##olerant
manif
manually
manual
manding
manages
maniac
##inking
alg
alves
alph
alumin
##stl
##stit
##stone
##station
##sthe
##style
##stache
##stances
suff
supa
faggit
##erepublic
dray
drip
dripp
drakes
girlz
whod
##andi
##anded
##andgeeks
##ilor
##ilia
##ilities
##peat
##pecial
theme
sew
seed
sevent
semin
semester
seaside
blur
blake
bland
blown
bliss
bloods
blair
blooming
blaze
bladder
plies
plants
##ndnd
sayfie
worries
bois
boiled
boiling
bokoo
##asta
##aste
##astination
talkers
cants
dees
deions
degr
delt
debt
deze
depa
device
deja
##abs
##abut
saint
sacr
savin
sausage
sailor
##hah
##happ
##hairs
faj
fakes
faking
facial
faze
faux
yok
clay
clerk
clouds
cue
sme
smel
smugg
noway
nowitz
tooise
toodles
offa
offset
offseason
##ako
##aky
##akin
##akening
##ongo
##ongto
##aining
##fel
##few
##gots
whys
seeking
##istn
##isty
##isten
##istry
##istics
needing
needles
spas
spun
spies
spott
spits
sphere
spilt
spending
spike
spittin
sperry
spitted
spiders
spreads
##tober
##tooth
##toget
thanx
thankin
thanggg
##obile
##obird
##obamas
##uder
##uded
slo
slag
sloth
slump
slants
slurs
sliced
slushes
slicing
slingin
yaz
yaaaaa
yapping
##apos
##apher
##apol
backdoor
backyard
trys
tryanna
realer
realised
realizing
##tails
pep
peer
peen
pecan
peanuts
lettuce
##ugga
##rich
##rived
##riots
retire
rethink
daqu
##venile
##bod
##boond
##assion
##asshow
##ocketed
##ups
##uper
guest
lees
lease
lemm
lexy
comple
combing
combin
compton
exer
exempt
exhale
exchange
bette
betawards
arc
arse
arrow
arroz
arrived
grs
gran
gray
grim
grip
grac
groc
grounds
grams
gretch
grateful
grilled
grumpy
groovy
gona
##full
amas
amar
amish
amster
ambers
amnesty
playful
playlist
peoplet
madea
madre
madness
madddd
madonna
scout
sciss
scope
scoot
scooby
scanning
scurl
eaters
flam
flame
floss
flats
flour
flakes
flaps
flgov
fluffy
flaky
whitebitch
##ffiti
overl
overs
overst
overpr
overdo
overnight
overpow
overbites
rightful
##geful
##george
telly
swam
swap
swung
swamp
sweg
swole
swipe
swooped
swerving
nicest
nicole
evens
##raud
##raced
##raction
##races
##rahal
birdie
birdits
uno
unit
units
united
unlim
unex
unsu
unnatural
ungreat
unpun
unbother
unarmed
unicorn
becuz
##ostate
##ostra
##eakshow
acted
actors
dickhead
user
##ishad
##isham
##ishment
downfall
##answ
morele
buds
idah
idgt
##ysis
stopp
stopit
stopwhite
stoprush
afl
afta
charged
dayd
dayu
##ously
##ouspeoples
newton
beening
diz
diets
divers
dizzy
##xton
##xtapes
illness
##ahy
##ahhhh
##ahiro
##nyc
bigga
coz
coin
coal
coors
coins
coca
##acom
##acred
##acriss
damnit
##isshit
feelins
mold
moist
mozz
mode
mocha
comeatme
yeaaaa
##this
##thea
##thanks
##thinking
agg
ages
aghh
agrees
againt
reduced
reduction
empl
employ
yankeestadium
lifelong
dumbest
dumbbbb
yellin
##orne
conj
converse
concuss
tees
tegen
chew
cheater
shoulder
shoulders
##ccets
##ccessful
muff
muzzy
mulat
disli
dispar
disaster
display
dispos
disbelie
tweeter
tweetlike
##awa
##awk
otp
sombody
someday
##arella
lilway
boyy
boyz
boyyyyy
boycott
cutter
cutie
cuttin
cutler
cutlers
womp
ghettohood
##place
##plants
##plotbad
phon
phill
phuck
phel
phony
pheon
##epussy
##epurge
quiz
quitting
quints
quicc
hitman
killers
cared
carroll
carbon
caramel
carnival
watchings
watchmil
stupider
stupidest
##new
##need
##neither
wayans
wayyyyy
wayyyy
columb
colog
colts
##ihana
staers
stache
couuuuu
couesy
fez
felon
##uling
##ulent
##ulting
##ulian
##ulating
##ulance
##ulations
babys
babbb
helly
helloween
monsta
monument
monkeys
monopoly
oldpics
oldpaint
oldyoung
moments
mommas
yeahi
yeahbut
writ
wrench
awa
awk
awfully
awhile
awakening
ohi
ohhhhh
##ichi
##ftops
##shut
##ships
##shoot
askd
game7
turnout
turnip
##derall
payment
payton
payroll
payche
paynext
bestie
bestfriends
hesit
wae
wale
waive
waahh
sucky
##things
##elback
probl
sexiest
sextape
##ohe
cuzz
cuzzo
headless
headache
headlock
headband
sidech
sideways
sidewalk
sidekick
##ianinternational
werewolf
adtr
adderall
lax
lauren
lactose
wib
wire
wierd
wieners
shoves
shutting
##oda
##oding
##odds
##odies
enuff
enzi
enlar
oklah
crave
kidd
poc
poem
poff
poison
poccets
attraction
lmmfa
streak
struck
strict
strategy
stranded
happyhour
raving
raunch
##quit
##quil
##quire
##quently
##quality
homeboys
homegirls
schoolers
godly
goddam
godfather
goddess
##gga
##ggs
##gger
wearerepublic
bases
follows
tonk
tono
tonks
##bron
##brid
##brook
##brator
##bridge
paay
paake
paial
pahahaha
##pects
##pective
highway
babymama
mars
marble
margin
marley
marker
marmal
mariam
mariano
##ocaly
fightin
typed
##hhht
##enson
##ensus
##ensions
##ensible
##enshaw
mayday
mayonna
remar
remote
remove
mao
maint
mace
resur
resil
resides
rescu
walker
runn
runner
runoff
##beat
##bean
##beck
snl
snotty
demps
sucha
gayboy
gaymar
gaywhats
yesall
waits
waitin
waited
gif
gibs
giulian
puedo
leaf
leagues
singers
longha
longlive
bruhh
hearings
lotto
##umpday
nahhh
##atedly
chickfil
elan
elway
elix
eloqu
freebies
minus
miniv
minority
minimal
missy
misspell
sleeve
##ssa
##prom
##prised
##proble
option
##eyed
##eyball
seenitall
poppy
populated
wishin
wished
careless
pleases
hottest
preppy
prego
preview
precon
prevention
prejud
swears
throwback
desse
deshawn
description
appla
approp
appealing
useful
tonights
glen
glor
glut
glue
glitter
globe
##acht
##achute
parry
parched
parachute
joes
jody
joel
joking
joked
joined
soriano
##plex
##onden
heabreak
heabroken
sins
##lique
##lijk
pullout
2011
perot
perks
perro
##angelo
##angels
bringin
sleeps
sleepin
relating
relative
baile
baiting
coolatta
##unting
##untlet
contest
context
contribute
handled
handjob
handicap
handcuff
straightup
classics
classroom
buyin
baller
ballot
ballots
balloons
##grand
##graded
##grapher
dada
roid
rover
roach
rogers
rolex
rofl
summ
##mann
dynam
##ifes
##hahahahaha
##eword
##ewords
10k
1017
joba
lighten
##phem
##phia
##phrod
tomy
tomcat
letsgo
sonn
sonbitch
dogshit
guessing
chilly
chilled
cait
cair
causes
caesar
greatwhite
##balls
##ballout
buses
busch
counties
skis
skies
skrr
skipping
selfright
pointy
barney
bargain
bihed
listing
musty
passenger
##kkkkk
droppin
halp
halo
mainez
obno
obrien
friendz
friendzone
interact
intercept
interior
interrog
fulla
teamign
pictured
bcuz
pickett
taur
taffy
taunting
##crust
catchers
skins
curvy
mikes
mi35
mixtapes
endless
enduring
endzone
serial
kindly
kindness
kinderga
favors
favorited
belief
believed
beliefs
deflect
deformed
##fucker
chrus
chronic
booties
halfassed
##ibly
##ibble
##iborne
accip
accents
cleans
lowest
sitcom
situations
repost
reprod
deadass
deadline
ionn
stark
starvin
greinke
greaser
mindless
##ailing
happend
happiest
bulldo
bullpen
poli
polk
policies
homer
homos
##ampa
##amping
drinkin
drinker
porno
pornos
pornhub
commander
commando
openw
matthew
helps
apache
apament
apolon
lineup
##nnnnn
##eshe
##eshit
##eshow
ahmed
ahoy
huf
warn
warned
##zzi
##zzly
##zzzz
differences
listened
boob
boogie
boobies
seth
setup
##weeters
smelled
shootin
shootas
shooters
100s
100000
##letweet
##skins
recess
reconsider
reflex
refused
refusing
refrig
reflected
refrain
numba
##hoven
respectful
denzy
denken
karaoke
holders
slutin
easter
genos
genesis
nawwww
postin
richard
treats
treatin
planning
beavis
mila
milit
milca
squish
squeal
squier
squeeze
squares
squeezing
blockhead
colds
colder
##clap
##claim
##clubs
bedtime
copying
copied
copped
rockets
shotty
fallen
fallout
surge
##vias
speakin
argent
pregnan
enthus
entitled
confess
confuse
sadity
##government
hangs
hanger
spew
specul
##medown
##coy
##eeeeeee
grandpas
catalog
midwest
midsole
nutts
nutella
patient
patients
patrol
patriots
raps
salon
salmon
hoodies
hoodcom
beanie
flappybird
flyin
mfka
metaph
purpos
##inoes
##lexia
regards
regulations
smoker
farrak
hillarys
nair
naive
navy
naira
naomi
##2013
inda
indic
indie
indigen
sweetyou
medal
medioc
medicine
##flow
##ounts
horns
firebird
fireworks
weaker
weakkk
weakkkkk
superb
superbow
superpow
suppoive
cocked
cocktail
esj
escos
escape
##when
##whore
##whites
##wheat
quicker
calculate
calamity
caps
capcom
capric
harr
harass
harris
harassment
lawless
lawrence
yupp
compre
companies
compassion
picslip
bios
biatch
biking
biker
forgets
##ictedto
seasonal
scarry
underage
understanding
hallways
##heim
dollas
cleanup
differentlevel
hungover
murica
posit
poser
posers
snappy
snapping
##former
decre
decides
decaf
decades
growin
growup
filing
filters
judy
juco
juices
jullie
juvenile
niagra
potus
potent
slaps
unfunny
ceo
ceiling
eddy
edited
edgar
eduard
handstand
irene
jigaboo
mcs
mcrib
##youknow
presents
preserv
corpse
pasta
paste
pastor
pastors
robber
wohy
extended
extracted
extensions
126
benihana
collar
colleg
jacking
masses
massacred
simons
simmons
licked
truths
deepest
felling
hugh
hugging
lyinggggg
seren
serge
serves
servers
serena
weirdo
weirdos
30th
deals
dealt
dealer
igu
icec
micheals
insp
insan
inspect
##ombat
sticker
solely
subm
submiss
submar
subbin
claimin
sprite
sprouts
dawson
dawggg
expired
##aaaaay
##aaaaaaa
gladly
erin
erick
erbody
erotic
publicity
creampie
conscious
consensus
cheeseburger
lmfaooooooooo
15k
hyd
hyped
hyping
humming
penitenti
peta
petite
ricks
viola
vibrator
shiver
stepped
steinbr
footed
complains
negroes
mills
braves
bravo
braxton
contrary
contrarian
controlling
randle
angus
promo
promote
bossed
kimora
morph
intro
intens
intvw
intolerant
storybook
closely
acab
acoust
acquire
syd
wackson
welbeck
cleary
balance
balcony
burbs
jean
jeanne
##weed
##weight
stripe
strikes
impregn
freakin
expects
115
durham
tittie
##bbie
buster
bears
donut
donkey
donuts
hunna
lupe
lucy
sandwhich
sandusky
valid
values
##notreg
##cycle
stephan
crowt
dreamed
boxers
scram
scrubs
wildin
mixing
danced
dances
dancers
panas
paners
memes
memorab
memorial
photographer
nicks
nickname
nickelback
tighten
viri
zelf
thugging
thuglife
chrisbrown
snapch
snapback
50s
50cent
layin
layer
testing
weaaak
##itionally
##inyan
towns
beefin
liberation
studies
prope
disgu
disgraced
keith
keisha
tvs
waters
belgrade
randomth
garys
garage
garlic
trel
trem
trek
##doesnt
##gedy
##ofas
##ofthe
##ofthew
##blow
##blah
##blair
##ethat
##ethren
##uuuuuuuuu
celeb
powerful
banning
banjo
bandz
loudest
loudmouth
magnet
maggie
##freakshow
##baar
##button
##10am
sharp
shared
sharana
sharpton
involve
lockdown
##ields
surprises
groupies
alexander
alexfrom
merk
mercy
sample
samesex
sooooooo
soooooooooooo
soooooooooo
uhm
##voked
fukd
explos
explode
exploding
stresses
homiez
collegehoops
1999
1969
1976
autistic
autograph
ciroc
dinosaurs
fckd
hickey
hickeys
kingdom
motown
motel
mutant
possum
visits
##monkey
lebrons
feeds
187
1800
cashman
cums
cumin
campbell
japs
netherlands
pushes
raining
rainbow
brainer
brainwashed
commented
profiles
supposedly
politically
13th
banged
bangbang
gasoline
lingu
maserati
masahiro
opposing
peaches
riot
verses
walls
##training
##burg
##burgers
##queen
##erole
lifestyle
lifeshe
chokes
bobble
exception
sneaking
yesterdays
airs
leading
leaders
rubs
rubbin
southcar
southwest
wizkid
holysp
failing
failure
grabbing
flattering
bitters
burner
burned
ducks
ducking
dancehall
ps3
pollos
shaq
ashanti
smashin
smashing
spelled
thangs
colorful
colorado
momsdem
attracted
40s
bums
buns
bundy
bunga
bundles
creature
creativity
fashoo
silk
silent
silky
silences
locations
champaign
allowing
governors
blessings
curricul
referred
barefoot
jammer
lambo
lamps
lambor
lorde
lordwill
timber
timberl
##afina
##mined
##eneck
annie
annivers
traumatized
brandeis
dragons
2001
equival
healed
larger
pinstr
pinpoint
packet
packages
tanne
winters
winteime
##conf
##convo
##etchallen
stalkers
truestory
##imately
depth
depending
screenshot
condition
conduct
condescending
teena
teenagers
headsmack
##otected
eyebrow
17th
costs
darn
darling
fishin
russia
titans
vegasshow
westbrook
##said
##drop
##drake
##drugs
##22bar
angela
angelique
transform
transformers
transformer
interests
virginity
explained
diggin
digestive
evan
events
keyair
nomg
satellite
wedges
wedlock
holidays
holoca
holmium
stuf
impressive
impressions
solving
solae
sockin
sockfetish
##ophile
##ophagus
breaded
drawers
coaches
coaching
attacking
settled
bslfe
domestic
dominoes
freestyle
frequently
fleet
fixing
jimmies
rayrice
tagged
umbrell
vagin
vaginal
incase
incons
incident
chuckers
frenchs
superst
anybodys
switcheroo
builders
snitches
snowpier
snowboarding
michaelbrown
viewing
austral
batting
bankroll
bankrupted
deton
gabri
hipsters
mister
nunn
romantic
victims
##nigger
injust
stomp
logical
debates
existence
grindr
flowing
paulgeorge
breakingbad
2012
royalty
purposely
freshmanadvice
consideration
disgusted
opinionated
flexed
palm
palmers
paltrow
witcho
waldo
##ydink
insects
tracking
prince
releases
closing
appreciating
appreciated
continually
taxis
gunsense
35s
bb16
brees
bathrob
casper
casino
casual
cigs
cigars
casey
jerseys
krabby
macys
napk
werd
yessss
yesssss
##laught
##gasm
##etti
innat
##veryone
nohside
nohwest
delight
illegally
borderline
mcdonald
buddys
circulating
secretly
secretary
beside
bouncer
bouncing
focusing
khali
lyt
lester
laker
mistress
mistakes
othot
pumps
radius
sandy
saran
voter
yardies
##movie
##guys
holler
hollow
##icycle
chainz
asshat
asshats
crashed
replaced
workshop
smiths
graduate
grammy
flights
conversations
basedgod
marrying
##rrrrrr
##rrrrrrrr
communion
communism
readingconvo
sweatshi
fergusonriot
breeding
breeders
dwade
dwarf
gaan
gauntlet
girardi
henry
hustlin
histories
hmmmm
mosa
mosquito
pomp
peezy
ronaldo
raghead
raggedy
susie
suspic
utter
uturn
challenger
dodger
candace
orientation
spirituals
peckers
struggling
lightskins
muthaf
muthafuckas
troubleman
aunts
auntie
ceainly
foune
iggys
kenneth
kenosha
nerd
nerdy
rammed
ultra
yuhhh
yuhhhh
##coln
##except
##vsstl
thinner
analy
analysis
infest
infilt
stinking
revolving
reveals
##iliated
fliin
uncles
uncletweet
fatherless
relaxing
relaxed
skype
skyler
bengals
fashioned
alcoholics
alcoholism
cdc
gaggin
honeybun
irrational
katys
muhhfuckin
nonstop
pjs
rentals
yeast
##nament
##iasm
##ermint
liquid
islands
chatter
fruits
protocol
proofread
minajs
desperately
addiction
cowboysnation
angelic
included
affordable
27th
bidens
coolie
cooper
federal
fisted
gummy
gardens
ikea
jerks
jerkin
obsession
pounding
##marks
##without
threes
threesom
beltran
shocking
limits
leggo
philadel
philosophy
appearance
approx
approved
responding
automatic
##girlsbelike
dragonball
churchs
audition
boomin
cells
century
errr
errbody
gmfu
grizzly
mobbin
mccoy
mccahy
pedro
pedophile
pushin
##kuch
##1614
##1636
whitney
whispers
whiskers
chested
cruci
cruising
receipts
gravy
gravity
graffiti
director
directly
directions
codeword
str8up
designs
elements
springtraining
antiwhite
masterchef
targeted
customs
candidates
douchebag
2310am
450
70s
bugout
buggin
bugatti
jai
jaime
jazz
janet
january
janosk
mooks
natl
natitude
rhyme
ummm
##knows
##wells
##armony
##addictedto
havnt
canceled
##hawk
cupcakes
slammed
slamming
peppermint
expression
swingin
enemies
##braska
##breaking
resisting
planeits
benzino
keyshia
wcvbpol
traitors
irritate
irritable
describing
described
computerworld
2k14
dummies
gwb
gwen
gwbush
gigantic
jeters
kushite
lindsay
lincoln
mnleg
mums
owl
owes
owieee
pitchers
pilgr
pilots
saggy
tuned
wooden
##bobone
incredibly
traveled
choppa
proslavery
prospects
crisp
crisco
crispy
requires
origin
boonies
facade
returns
scrape
activity
##thatbitch
concern
scheduled
demanding
barbies
sprayed
promoting
promotion
professional
silverware
announcing
psychic
psychotic
effective
bmth
deemed
douglas
kaya
kayci
punjab
punishment
rbi
rotate
rotation
tioo
vacay
western
wesgod
wutang
hobbit
hobbits
##regation
italy
socially
uppercut
butthead
reaching
primo
preacher
preaching
september
guardianinternational
scientific
wrestle
meaningless
attendance
puffin
elevators
annoyance
scratches
hahahahahahah
hahahahahahahahaha
oppounities
dominican
jennas
southerners
nephews
leprechauns
derrick
ginzos
gallo
gentrif
gaping
gaptooth
ihate
ios8
jessie
kierst
lbum
lbvs
mmmh
ouch
ouija
ponk
ponies
ponder
persons
perspective
puddle
wnna
wyo
wolves
wrecked
##aintloyal
##tweets
##tweettweet
##ationt
shmoney
libear
meech
trinity
trinidad
chirpin
brunos
brunette
freddie
crooks
repeatedly
managers
management
guaranteed
flopping
##osexuals
swimming
sweeping
downloading
connection
diseases
##00000000
##ealthy
admitted
barrys
murphys
ironing
jeffersons
responsible
responsibility
mothafuckin
possibles
constitutional
2013faves
breasts
congratulate
degenerate
represents
cocaina
berk
berlin
bonus
bambino
bussin
cyber
corey
cabinet
dhugga
dubstep
fiberg
germany
jerryspr
looser
loosen
nanse
ovaries
renew
renamed
radar
reeval
ruthless
wingstop
winking
wobble
watson
zoes
##hello
##writing
trappin
##americans
bradley
relieve
climatechange
spinellis
spiderman
guido
amongst
scoring
flooded
hahahhaha
adopting
rachet
appointee
barackobama
passionate
confrontation
smoothly
dollaz
collector
collectively
inspiration
inspirational
hundreds
stephenson
##blocked
spellingbee
bleeding
principle
splashgang
votingmatters
jacobs
aeropostale
bgc
breeze
cadillac
cussing
cussed
casserole
censor
catholics
dorsey
ellsbur
gyp
gyro
heeb
heeft
ioana
jockin
jamaican
llab
llama
leaked
mk48
mammy
ponytail
qtna
qtips
tatum
txtn
tubes
tampa
vincent
wisewords
wahine
wealthy
##power
##ography
##ukee
##twitter
thiy
toddler
mythology
nigeria
allegiance
frustration
procreate
criminal
segregation
clueless
yaaaas
yaaaass
lexus
lemonade
bytch
affection
awwwwww
kidnap
kidnapped
kidnapping
marshall
warsaw
ridicule
correctional
lmfaooooooooooo
introduce
introduced
introducing
investment
investigate
cameron
translation
translated
krispies
suspend
suspended
kaepern
whispering
products
quaerback
acknowled
masturbate
masturbated
athlete
athletes
athletic
executive
suggestion
2much
475
445
aquafina
authent
bosley
biceps
bizarre
dvds
erything
gahdamn
heterosexuals
ipad
junior
juniors
laggin
mildly
publix
rigged
rooftops
tablet
tucking
tucked
venue
vengeful
velvet
##member
##crazy
##craft
##oxide
##walma
thorough
toothless
hoedont
hoggin
##edictable
limewire
andrews
chowder
chanting
chantel
##inthed
webbie
##amelraces
depression
slidin
levitating
ambulance
uncivilised
identify
identifies
cocoa
conclusion
conclusions
qualities
carolina
schemes
scheming
craigslist
maximum
resoing
snobby
puppies
puppets
eliminated
despite
despise
parrot
omarion
performance
skillet
objective
halfbreeds
warriors
patterns
lmaooooooooooo
capitalized
hunnit
hunnid
memphistn
##oftheday
motivation
amazes
fleece
pacernation
circumference
circumstances
labeled
celtic
volunteers
worldseriesgame
paicularly
gentleman
specific
principal
hulkamania
aurora
dimagg
determine
determined
ewwwwwww
fenna
fenkell
foto
fotos
fosters
fisherman
geazy
jello
kylie
kleopatra
lulu
mhmm
mckean
mantle
mugshot
molester
narnf
oveime
ooooow
olivia
olivias
rivalry
sfvsstl
soto
spectacle
waaaaay
zombie
zombies
##laden
##patrick
##pickup
##privile
##proverbs
##dogs
##kinda
##erkra
shadow
shadows
shantrell
sheeple
inktober
##omething
onslaught
##legend
stunna
stapler
streams
stewa
stewie
fucktard
fucktards
cheetah
assignment
justsaying
justsayin
briefs
outrageous
heisman
weenis
pricklypear
prostitute
pronounce
alaska
worshiping
devoted
arrive
granted
scumbag
scumbags
unprotected
unpredictable
bulb
idolize
##thursday
##thursdays
emergen
emergency
discriminate
discrimination
##plainable
phoenix
phrase
phrases
quadr
##berlain
launcher
marvels
removes
maidana
application
parasitic
perpetually
##logic
skulls
barkley
milkshake
milkshakes
squirrels
terrifying
terrified
indirectly
competing
hahahaaha
mcflurry
services
pennant
georges
georgia
bucketsproverbs
sharkeisha
sharkeishad
antigay
titanfall
slaughter
diploma
diplomatic
chainsaws
muhammed
muhammad
estaban
establish
disappeared
disappointed
occasions
sympathize
wheretheyatdo
scorpion
scorpio
intelligent
intelligence
journalist
stereotypes
antisemitism
6pack
auburn
borders
battling
bblu
cmchat
cereal
cinegram
cushite
doodoo
fendi
goreing
gassin
goooood
gelato
gungho
gameday
hanson
hitters
hysteria
iconic
iwanttop
jasmin
juggin
jarrett
kuwait
komt
kobane
kappa
lurkin
lhhatl
mendes
ruffled
rooster
tntweeters
ucf
veteran
yaknow
##preach
##target
##futures
thnx
hologram
##etalot
wholesome
beethoven
beverly
shrek
shaggy
shostop
invented
mysteriously
stroking
traditionally
tragic
trimmed
trojan
hajj
hairline
hawaiian
chamberlain
chemistry
brutal
bromine
bridgets
atmosphere
outsidest
prolli
twenties
twitta
crumbs
crawl
aloha
##straight
drained
drudge
sequester
blatantly
blasphem
platinum
sacrif
savior
sakurako
claiborne
spiteful
sponsor
slurp
grudges
unhealthy
consequ
convenient
concentrate
disabled
disperse
colonial
awareness
advantage
administration
encourage
##qualified
financial
pappadeaux
highlights
snoin
##probz
prepare
muscles
instructions
perfume
caleb
skyrocketed
barbershop
endorses
ahsfreakshow
boosting
reconciliation
reflections
milwaukee
survived
additional
midterms
purchased
individ
indonesia
lmaoooooooooooooooooooo
horrific
johansson
scarlett
mcnair
buddha
intentionally
improve
impeachobama
freaksandgeeks
changethename
yassssssssss
jewelry
floridians
truedetective
spokesman
vehicle
freestyles
fixitjesus
sonsofanarch
universal
microphone
lynch
infinitely
malibu
seagull
whitetrash
linkedin
francis
franchise
livestream
megatron
confirmation
intellectual
riri22bar
crazzzyyyyyy
prematurely
hiddencams
biscuits
vermontproblems
stefanie
pharaohs
1v1
114114
2many
2parasites
6months
alyssa
airlines
avengers
aryan
bougie
boolin
bounty
category
ceelo
dyslexia
ezra
e250
egregious
fstow
fiancee
fifty
founate
fierce
fiji
gitmo
gusta
gansitos
gepest
hentai
heeeey
jesse
jumbo
jacey
jodeci
juelz
kunis
kamehame
korean
kemora
l8v3
lerner
liga
ludacriss
linda
lyssa
lungs
laptop
mme1636
m203s
nintendo
oysters
pesky
pisces
pakistan
pamaj
publish
pundits
ralph
rouge
rulers
ramesh
rampage
sesame
sidet
sushi
tougher
tyson
utah
uchiha
volleyball
vccamelraces
vandalize
wodeh
ysrahal
yugioh
zorro
zeeti
##paper
##dumps
##gunned
##ghini
##oyees
##hopsin
##teabag
##ebola
##bucketchallen
thomas
##itawkward
##annoying
tootsies
toronto
##enjoy
whopper
whistle
shacking
sheriff
shiiiiiit
inevitably
ongesteld
meijer
fuzzies
fuuuuuck
furniture
stoneipa
istandwith
itunes
ascii
##alagay
tribute
trophies
lobster
foriegn
pussywhipped
chaber
chihuah
chiraq
chesterfield
nelson
assumptions
hermaphrod
hernandez
##imperative
nofliter
nobrainer
ifwedate
bronem
goauche
frooooontin
froyo
abraham
procrastination
whataburger
everclear
crippled
crochet
revelations
alphabet
aluminum
bloomington
sacrament
smelt
nowitzki
spotted
sperrys
yaaaaaas
daquan
##boondocks
complement
combination
grocery
gretchen
amsterdam
scissor
overpriced
overdoing
overpowered
unlimited
unexplainable
unsuccessful
ungreatful
unpunished
unbothered
idaho
stopwhitepeople
##ouspeoplesday
mozzarella
yeaaaaahhhh
employees
employee
concussion
disbelief
##plotbadly
phelps
pheonix
watchingsmelling
watchmilitary
cologne
couuuuuch
oldpainting
paychecks
paynextdoor
oklahoma
strictly
raunchy
wearerepublicnotreg
marmalade
mayonnaise
rescued
dempster
gayboyproblems
gaymarriage
giuliani
chickfila
elixer
minivan
preconceived
prejudice
applaud
appropri
dynamite
letsgoyankees
selfrightous
obnox
interactions
interrogation
kindergaen
reproduce
refrigerator
enthusiasm
speculation
hoodcomedy
metaphor
purposes
indigenouspeoplesday
mediocre
weakkkkkkkk
superbowl
superpowers
capricorn
differentlevels
eduardo
submissive
penitentiary
acoustic
impregnating
memorabilia
alexfromtarget
southcarolina
holyspirit
momsdemand
curriculum
lamborghini
lordwillin
timberlake
anniversary
equivalent
pinstripes
vegasshowgirls
transformthursday
holocaust
umbrella
snowpiercer
bathrobes
nohwestimperative
khalifa
philadelphia
wcvbpoli
gaptoothed
fiberglass
jerryspringer
reevaluate
ellsbury
kaepernick
dimaggio
narnfraud
##privilege
outsidestop
sonsofanarchy
riri22barbie
kamehameha
##bucketchallenge
hermaphrodite
wearerepublicnotregime
